<unk>	0
<s>	0
</s>	0
▁isoform	-2.35998
-	-2.61972
▁protein	-2.96445
▁X	-3.02807
▁1	-3.62642
1	-3.70216
▁	-3.92308
▁2	-3.92907
2	-4.17464
3	-4.41851
containing	-4.47425
▁domain	-4.52153
▁3	-4.58968
like	-4.76558
▁precursor	-4.91405
4	-4.93344
▁4	-4.94786
▁factor	-5.02436
▁receptor	-5.11292
▁subunit	-5.14135
▁finger	-5.16655
▁kinase	-5.20044
▁zinc	-5.20416
5	-5.27825
▁and	-5.32943
▁member	-5.33113
protein	-5.35568
binding	-5.3566
A	-5.4263
/	-5.43163
6	-5.46601
▁5	-5.48409
▁a	-5.49955
ed	-5.50129
B	-5.51949
associated	-5.52279
▁homolog	-5.55791
▁b	-5.64181
▁6	-5.66921
▁family	-5.66993
,	-5.6924
▁C	-5.70392
7	-5.75674
▁alpha	-5.76045
▁repeat	-5.85869
▁mitochondrial	-5.87926
▁A	-5.902
▁E	-5.91179
ing	-5.97286
8	-5.97982
▁c	-5.98617
▁complex	-5.99011
e	-6.01344
▁ubiquitin	-6.02126
▁7	-6.04248
-1	-6.08249
9	-6.12543
related	-6.13134
▁transcription	-6.16059
▁serine	-6.16453
of	-6.17186
▁beta	-6.1977
▁trans	-6.22583
dependent	-6.24367
▁8	-6.25129
▁B	-6.25771
▁N	-6.29038
▁ligase	-6.29866
▁type	-6.31697
interacting	-6.33092
C	-6.34355
▁G	-6.37058
al	-6.39222
membrane	-6.39296
-2	-6.43396
threonine	-6.43738
▁RNA	-6.43919
family	-6.43997
in	-6.44012
▁d	-6.44784
rich	-6.4679
▁phosphatase	-6.46906
ic	-6.48948
▁nuclear	-6.51436
▁9	-6.53337
coil	-6.55297
10	-6.57266
type	-6.60236
▁sub	-6.61273
▁10	-6.63438
ase	-6.65625
▁channel	-6.65727
specific	-6.6608
▁chain	-6.66821
s	-6.67183
▁transporter	-6.67194
▁gamma	-6.69255
▁DNA	-6.70457
D	-6.70809
▁membrane	-6.73099
▁calcium	-6.74991
activating	-6.75617
zed	-6.76467
▁acid	-6.76922
ion	-6.77764
or	-6.79355
▁coil	-6.80631
N	-6.81489
▁FAM	-6.83896
te	-6.84326
▁unc	-6.85641
c	-6.87018
▁ankyrin	-6.88193
▁F	-6.89305
▁e	-6.90491
able	-6.91724
▁S	-6.9223
orf	-6.9271
n	-6.94798
▁L	-6.95761
11	-6.96262
▁regulator	-6.96611
▁regulatory	-6.96817
▁P	-6.96876
▁cell	-6.9705
sion	-6.97087
▁prob	-6.97438
▁tyrosine	-6.98882
▁GTPase	-7.02158
▁carrier	-7.02768
▁growth	-7.04561
acteri	-7.04909
)	-7.06614
terminal	-7.07513
▁hydrolase	-7.07632
methyltransferase	-7.098
▁p	-7.1006
▁antigen	-7.10594
S	-7.13526
▁kDa	-7.14697
▁adhe	-7.14919
▁nucleotide	-7.15593
▁histone	-7.16022
coupl	-7.16143
▁synthase	-7.16407
▁leucine	-7.16754
▁H	-7.17419
a	-7.17508
y	-7.17751
▁solu	-7.17914
12	-7.18487
▁D	-7.19195
▁signal	-7.19401
▁f	-7.19474
(	-7.19738
L	-7.20375
-3	-7.20645
▁sodium	-7.20836
▁dehydrogenase	-7.21189
▁I	-7.21484
▁preproprotein	-7.21562
▁11	-7.21998
▁motif	-7.22393
▁T	-7.24941
beta	-7.25925
▁II	-7.26042
▁ATP	-7.26053
▁rho	-7.29458
13	-7.29572
▁inhibitor	-7.32267
er	-7.33069
▁guanine	-7.33404
tic	-7.33505
▁M	-7.33679
▁tumor	-7.34494
G	-7.34868
14	-7.35185
ative	-7.35804
▁12	-7.3717
▁13	-7.37657
H	-7.38012
alpha	-7.389
F	-7.3912
ry	-7.40625
▁carboxyl	-7.41228
▁microtubule	-7.42053
▁SH	-7.43599
▁gene	-7.44139
ribosomal	-7.45266
har	-7.4592
▁ATPase	-7.4597
▁ras	-7.4624
X	-7.46458
th	-7.47621
▁exchange	-7.48347
put	-7.48571
▁U	-7.49139
▁BTB	-7.50056
▁polymerase	-7.50182
-4	-7.51146
▁interleukin	-7.51934
assembly	-7.51995
activat	-7.52031
▁poly	-7.52323
CoA	-7.53746
kinase	-7.55176
16	-7.55593
box	-7.55661
transferase	-7.56652
▁14	-7.56743
15	-7.56855
b	-7.57721
▁vol	-7.59445
▁homeobox	-7.59572
▁wi	-7.59585
phosphodiester	-7.6094
▁cyclin	-7.61129
lysine	-7.61414
ated	-7.61875
▁helicase	-7.63419
▁olfacto	-7.64656
▁molecule	-7.64669
tage	-7.65151
▁potassium	-7.65836
▁non	-7.65865
▁WD	-7.66194
▁dyn	-7.67258
▁delta	-7.67737
▁g	-7.67758
▁homology	-7.68184
ein	-7.68314
phosphate	-7.69006
▁co	-7.69623
▁immunoglobulin	-7.69974
▁15	-7.70874
▁h	-7.71095
d	-7.71244
1-	-7.71443
▁20	-7.71531
rin	-7.71695
▁enzyme	-7.7175
▁tRNA	-7.72201
17	-7.72801
P	-7.73252
activator	-7.73832
r	-7.73994
regulat	-7.74098
ation	-7.75958
18	-7.77323
20	-7.77358
▁transport	-7.77672
▁centrosom	-7.78282
ll	-7.78739
19	-7.79158
▁box	-7.79228
▁LIM	-7.79788
▁pleckstrin	-7.81537
ly	-7.81672
▁in	-7.81718
▁18	-7.81952
▁initiat	-7.82226
▁16	-7.8314
▁oxidase	-7.84589
▁protease	-7.84709
▁O	-7.85748
▁sma	-7.85894
▁actin	-7.86289
tion	-7.87241
▁super	-7.88103
▁17	-7.88376
▁dis	-7.88572
l	-7.88574
mal	-7.88939
▁sorting	-7.89165
▁CD	-7.90508
▁PH	-7.91038
ity	-7.91227
▁repair	-7.91304
▁un	-7.91548
yl	-7.91596
▁m	-7.92085
cytochrome	-7.92647
▁reductase	-7.9273
g	-7.9322
▁kinesin	-7.94097
▁muscle	-7.95134
cyclic	-7.95238
▁myosin	-7.95399
▁synapto	-7.96109
▁25	-7.9667
▁ribonucleoprotein	-7.96711
▁element	-7.96736
▁group	-7.98072
tric	-7.98153
▁i	-7.98235
▁s	-7.98423
M	-7.98879
▁glutamate	-7.99114
▁cAMP	-7.99706
▁cytoplasmic	-7.99927
▁V	-8.01407
)-	-8.01495
ate	-8.01628
transport	-8.0363
E	-8.03854
▁pre	-8.05065
▁mito	-8.05127
▁methyltransferase	-8.05195
▁enhancer	-8.05402
▁19	-8.0557
opeptide	-8.05787
▁collagen	-8.05835
▁tetra	-8.06574
min	-8.06625
ar	-8.06898
▁acyl	-8.07078
ive	-8.07335
▁TBC	-8.07897
▁domains	-8.08061
gen	-8.08148
▁mono	-8.08421
▁proline	-8.09159
▁axon	-8.09695
▁phosphatidylinositol	-8.0997
▁inositol	-8.10028
▁(	-8.10586
▁K	-8.10807
char	-8.10828
▁suppress	-8.10976
▁RNF	-8.1148
se	-8.12067
▁AP	-8.12109
▁component	-8.12417
T	-8.12538
on	-8.12775
▁large	-8.13025
induced	-8.13072
light	-8.13299
inactiv	-8.13424
cell	-8.13527
▁class	-8.1355
▁pro	-8.14282
I	-8.1446
4-	-8.14574
▁testis	-8.15122
▁metalloproteinase	-8.15548
▁death	-8.15866
BP	-8.15997
▁39	-8.16366
▁Y	-8.16528
cteri	-8.16855
▁on	-8.16925
hara	-8.17022
ment	-8.18196
▁neuronal	-8.19174
DP	-8.19349
▁2,	-8.19351
▁tri	-8.1937
▁22	-8.20092
▁phospholipid	-8.20161
O	-8.20305
▁amino	-8.20307
▁translation	-8.20524
▁26	-8.20871
▁interactor	-8.2118
tive	-8.2123
ng	-8.21432
ous	-8.2215
▁exchanger	-8.2302
t	-8.23512
▁polypeptide	-8.2352
us	-8.23739
▁kelch	-8.2455
▁rab	-8.24934
p	-8.25066
▁de	-8.25081
o	-8.25131
▁Rab	-8.25142
▁glycoprotein	-8.25947
▁transcriptional	-8.26004
▁adapt	-8.26067
tag	-8.26452
50	-8.26682
▁specific	-8.27133
▁3-	-8.27583
▁R	-8.27771
calmodulin	-8.27919
-6	-8.29292
▁peroxisom	-8.29354
▁dual	-8.29933
lav	-8.30118
K	-8.30161
▁multi	-8.3018
-5	-8.30281
▁sperm	-8.30397
▁ADP	-8.30741
▁cytosol	-8.30777
▁1-	-8.31022
function	-8.3128
▁28	-8.31596
yltransferase	-8.32514
▁cysteine	-8.3255
▁fibro	-8.32751
▁t	-8.33861
▁RING	-8.34164
integrin	-8.34392
▁modulator	-8.34469
▁SCA	-8.34533
-2-	-8.34708
▁pore	-8.34845
▁nec	-8.3554
▁KIF	-8.35846
di	-8.3598
linked	-8.36413
▁tubulin	-8.36572
rosis	-8.36689
tRNA	-8.37181
▁catal	-8.37578
▁elongat	-8.37682
▁40	-8.37768
▁brain	-8.37983
▁MAP	-8.38008
4,5-	-8.38064
express	-8.38065
f	-8.38415
▁lectin	-8.39402
receptor	-8.39777
phospholipase	-8.40275
▁double	-8.40812
▁3',5'-	-8.41254
▁syndrome	-8.41638
▁5'-	-8.42082
▁cation	-8.42484
▁38	-8.42517
▁ZDHHC	-8.42886
▁Golgi	-8.43029
▁KIAA	-8.43306
▁hetero	-8.43307
point	-8.43711
▁bi	-8.4378
V	-8.43809
▁exocy	-8.44023
▁interferon	-8.44683
▁nexin	-8.44813
mRNA	-8.45702
cetylgalactosaminyltransferase	-8.45809
Y	-8.46429
▁rap	-8.46748
▁syn	-8.47005
▁matrix	-8.47172
▁splic	-8.47192
U	-8.47274
-7	-8.4739
▁an	-8.47775
phosphatase	-8.47887
gene	-8.48296
▁demethyla	-8.48574
is	-8.48725
GAP	-8.49022
▁1,	-8.49464
▁NEDD	-8.49829
conjugati	-8.50263
▁27	-8.51395
▁deacetylase	-8.51402
▁protocadherin	-8.51647
ted	-8.52377
▁LOC	-8.52706
▁proton	-8.52722
▁60	-8.52995
sulfotransferase	-8.53115
▁isomerase	-8.53761
▁junction	-8.54455
▁cytokine	-8.54902
▁ma	-8.55031
▁neutr	-8.55466
▁4-	-8.55751
▁keratin	-8.55847
bisphosphat	-8.56048
▁anion	-8.56144
▁integrin	-8.56406
▁epsilon	-8.56423
activ	-8.56544
▁21	-8.56786
▁peptide	-8.56931
▁23	-8.56953
▁CU	-8.56971
-1(	-8.57943
i	-8.57977
▁glutathione	-8.58047
2-	-8.5816
▁hormone	-8.58306
isphosphate	-8.59473
▁ecto	-8.59568
22	-8.59877
hydroxy	-8.60011
▁synapt	-8.6018
▁DDX	-8.6024
▁armadillo	-8.60243
glycoprotein	-8.60329
▁lysine	-8.60354
▁Rho	-8.60553
inducible	-8.608
21	-8.60819
sulfate	-8.61729
▁spermatogenesis	-8.61751
▁integral	-8.6179
karyo	-8.62176
eu	-8.62196
acyltransferase	-8.62237
▁PDZ	-8.62253
respons	-8.62601
▁forkhead	-8.62773
hydrolase	-8.63149
▁regulat	-8.63229
nt	-8.63407
▁flagella	-8.63458
▁peptidase	-8.63757
▁carboxypeptidase	-8.63798
▁heat	-8.63831
▁EF	-8.64166
▁DENN	-8.64312
m	-8.64672
iled	-8.64689
nectin	-8.64763
▁single	-8.64834
▁cyclase	-8.64849
▁disk	-8.65244
ile	-8.6542
ette	-8.66035
▁affinity	-8.66414
hand	-8.66451
▁aryl	-8.6656
▁ex	-8.66888
▁coactivator	-8.67082
sialyltransferase	-8.67461
▁cancer	-8.6748
▁high	-8.6748
▁j	-8.67768
▁30	-8.67897
-1-	-8.68093
ADP	-8.68095
▁surfac	-8.68098
▁k	-8.68669
actin	-8.68732
-1,3-	-8.68898
▁cilia	-8.69053
▁complement	-8.69169
bility	-8.69432
▁cadherin	-8.69688
na	-8.69691
▁MY	-8.69694
arginine	-8.69886
▁TRIM	-8.70131
▁peptidyl	-8.70448
▁golgin	-8.70749
▁chemokine	-8.70751
▁break	-8.70929
chain	-8.71027
-3-	-8.71043
ound	-8.71836
ient	-8.71931
▁palmitoyl	-8.72053
flagella	-8.72464
sis	-8.72669
oenzyme	-8.7291
ubiquinone	-8.72977
▁intra	-8.7299
▁leukocyte	-8.7356
stranded	-8.73667
adenylate	-8.73833
▁III	-8.74164
▁SEC	-8.74731
philin	-8.74956
eptin	-8.75149
▁GTP	-8.75238
▁nucleo	-8.75317
POZ	-8.75465
MO	-8.75626
▁vacuolar	-8.75866
▁parti	-8.75962
24	-8.75992
▁chloride	-8.7645
▁melanoma	-8.76451
▁5-	-8.76498
▁proteasom	-8.76667
hydroxylase	-8.77123
▁24	-8.77195
AR	-8.77339
phosphatidylinositol	-8.77552
ribosyltransferase	-8.77617
▁methyl	-8.77765
▁SU	-8.78255
acetyltransferase	-8.78292
R	-8.78628
▁ribonuclease	-8.78709
tosis	-8.79261
▁decarboxylase	-8.79428
ential	-8.79537
ND	-8.79744
serine	-8.79745
▁transfer	-8.79801
▁cla	-8.80002
▁cycle	-8.80711
▁deaminase	-8.80811
tional	-8.80964
▁caspase	-8.81254
▁sorbi	-8.81321
osome	-8.81464
ral	-8.81598
▁phosphoprotein	-8.81878
DNA	-8.82457
st	-8.82482
▁bromodomain	-8.82494
▁arginine	-8.82647
trans	-8.82872
▁NADH	-8.83173
▁autophagy	-8.83316
▁CCCH	-8.83746
▁reticulum	-8.83749
ple	-8.84212
▁thrombospondin	-8.84381
▁endonuclease	-8.84381
processing	-8.84413
▁low	-8.84535
▁phospho	-8.85116
▁35	-8.85139
▁2-	-8.85256
mannosyl	-8.85438
▁glucose	-8.85612
▁to	-8.85657
releas	-8.85768
▁iso	-8.8577
acetylglucosaminyltransferase	-8.86295
▁apoptosis	-8.86305
▁33	-8.86317
▁arf	-8.86343
▁lip	-8.86422
-10	-8.86456
▁transferase	-8.86501
amino	-8.86656
)/	-8.86668
deriv	-8.86934
▁n	-8.87
▁NAD	-8.8706
▁pot	-8.87116
acid	-8.87299
ner	-8.87579
▁facilitat	-8.87606
acyl	-8.87699
▁chromosome	-8.88027
▁platelet	-8.88263
late	-8.88293
▁45	-8.88489
cle	-8.88602
▁W	-8.89247
▁36	-8.89465
▁la	-8.89538
▁Nek	-8.89592
▁substrate	-8.89593
▁neuroblastoma	-8.89595
nucleotidase	-8.89665
phospho	-8.89884
carboxylate	-8.89949
▁oxysterol	-8.90264
▁RAD	-8.90273
▁glycosyltransferase	-8.90276
eav	-8.90823
ass	-8.91506
▁FERM	-8.91617
▁cotransporter	-8.91629
▁trafficking	-8.91632
▁long	-8.91671
▁CUL	-8.91743
iogenesis	-8.91835
sensi	-8.91953
complex	-8.9222
▁FYVE	-8.92302
▁centromere	-8.92309
▁aminopeptidase	-8.92313
-9	-8.9249
▁UP	-8.9304
ctor	-8.93645
27	-8.93846
fox	-8.94222
23	-8.94451
▁tropo	-8.95048
▁DDB	-8.95101
▁integrat	-8.95251
associat	-8.9527
▁sem	-8.95724
▁amyloid	-8.958
▁tetraspan	-8.95813
▁myelin	-8.9583
▁Fc	-8.96189
and	-8.96318
aminobutyr	-8.96733
▁lipase	-8.96742
▁adenosine	-8.97004
FIP	-8.97119
▁neuro	-8.9713
▁div	-8.97173
ance	-8.97185
▁coat	-8.97234
▁corepressor	-8.97237
▁out	-8.98074
acetyl	-8.98218
UG	-8.98462
nucleoside	-8.98611
▁insulin	-8.98689
ble	-8.98777
sin	-8.98863
▁motifs	-8.9964
▁rec	-9.00011
▁intermediate	-9.0017
▁56	-9.00689
▁6-	-9.00778
▁endoplasmi	-9.00872
▁ligand	-9.00911
▁l	-9.02114
▁ster	-9.02171
▁guanylate	-9.02435
CR	-9.02718
ffe	-9.02794
▁resistance	-9.02919
30	-9.03161
cytosine	-9.03387
stimulat	-9.03482
40	-9.03615
▁differentiation	-9.0368
▁mRNA	-9.0423
en	-9.04508
38	-9.04699
▁body	-9.04838
acetylglucosamine	-9.04898
diacylglycerol	-9.04898
▁32	-9.04914
180	-9.0496
taxin	-9.05043
partit	-9.05209
▁mediat	-9.05418
splic	-9.05495
29	-9.05502
▁zeta	-9.05507
▁hex	-9.05536
▁anaph	-9.05588
NOT	-9.05822
▁44	-9.05954
▁transcript	-9.06194
▁phosphate	-9.06272
▁bcl	-9.06375
▁dynami	-9.06546
nin	-9.06898
blin	-9.06959
prin	-9.07237
▁29	-9.07244
60	-9.07281
zyme	-9.07642
▁anchor	-9.07715
▁activat	-9.08033
▁NF	-9.08522
esterase	-9.08588
pyruva	-9.08751
▁exonuclease	-9.08756
▁GRB	-9.08786
ataxin	-9.0916
otropic	-9.09507
▁shock	-9.09508
25	-9.09799
▁nucleoside	-9.09866
nucleotide	-9.09901
▁ANK	-9.09939
▁70	-9.10181
ak	-9.10379
k	-9.10577
WD	-9.1058
▁fatty	-9.10699
26	-9.10777
promot	-9.10863
catenin	-9.11058
▁chromodomain	-9.11157
abl	-9.1131
▁oxidoreductase	-9.1199
▁COP	-9.12053
▁lipoprotein	-9.12175
▁polyphosphate	-9.12189
v	-9.12243
▁chaperone	-9.12447
▁mu	-9.12496
▁polyadenylat	-9.12601
▁paired	-9.12828
lin	-9.1308
apho	-9.13113
▁leukemia	-9.1326
▁r	-9.13296
▁neuron	-9.13384
▁PR	-9.13463
▁myotubularin	-9.13677
▁carbohydrate	-9.13677
▁short	-9.13743
▁transducin	-9.13746
▁epidermal	-9.14007
▁lysophosphatid	-9.14022
ox	-9.14369
▁ETS	-9.14681
-2,3-	-9.14735
lyl	-9.14753
forming	-9.1496
▁at	-9.15036
▁lysosomal	-9.15225
comb	-9.15257
cytidine	-9.15385
▁cGMP	-9.15401
mannosyltransferase	-9.15573
▁nucleol	-9.15654
less	-9.15933
▁recogni	-9.16262
ribosyl	-9.16274
rec	-9.1654
amine	-9.1664
80	-9.16662
glucuron	-9.16846
▁calmodulin	-9.17524
em	-9.17611
▁cap	-9.17913
▁target	-9.17952
▁acetylcholine	-9.18027
▁CY	-9.18349
▁exci	-9.18469
▁repressor	-9.18953
▁glycine	-9.1897
▁PARP	-9.18985
▁ZIP	-9.1908
▁lamin	-9.19812
▁vesicle	-9.19818
reductase	-9.20035
▁GA	-9.20192
▁monooxygenase	-9.20549
hydrogen	-9.20621
▁thioredoxin	-9.20728
▁translocator	-9.20736
blast	-9.20811
anconi	-9.20853
▁endotheli	-9.21041
▁37	-9.21061
olar	-9.21413
▁foca	-9.21452
▁KAT	-9.21673
▁PAK	-9.21682
ra	-9.21695
zipper	-9.22556
▁ephrin	-9.22573
ceptor	-9.22798
3-	-9.22864
uit	-9.23089
▁fib	-9.23093
W	-9.23637
▁purin	-9.23705
itin	-9.23791
▁endo	-9.23856
fo	-9.24021
▁o	-9.24282
enoyl	-9.24694
▁estrogen	-9.2477
helicase	-9.24799
kappa	-9.24918
▁proliferat	-9.25301
▁AMP	-9.25375
igenic	-9.25405
▁BAG	-9.25463
-8	-9.25549
▁MI	-9.2557
▁neural	-9.25614
SUN	-9.25706
▁cluster	-9.26108
OS	-9.26358
▁interact	-9.2656
rect	-9.26689
ory	-9.267
▁WAS	-9.26765
glycosylase	-9.27066
ax	-9.27082
▁66	-9.27158
▁BRCA	-9.27342
galactosyltransferase	-9.27396
w	-9.27444
tracellular	-9.2829
▁mo	-9.28513
cent	-9.28709
54	-9.28825
embryon	-9.29194
▁export	-9.29226
-2,6-	-9.29315
▁Rac	-9.29338
id	-9.29357
▁part	-9.30037
density	-9.30049
▁AT	-9.30075
36	-9.30107
factor	-9.30111
▁calpain	-9.30356
keto	-9.30412
▁nucle	-9.30647
▁acetyl	-9.30681
ve	-9.3083
▁express	-9.30916
led	-9.31061
▁glutamine	-9.31111
ator	-9.31238
▁patch	-9.31248
▁carcino	-9.31299
▁neurexin	-9.31326
▁47	-9.31329
▁Wil	-9.31335
-1,4-	-9.31365
tetrahydro	-9.31546
▁se	-9.32007
▁dioxygenase	-9.32082
j	-9.32162
▁ABHD	-9.32332
▁core	-9.32431
▁GDP	-9.32508
42	-9.32791
▁ral	-9.32928
53-	-9.33202
▁ELA	-9.33261
emia	-9.33288
▁synthetase	-9.33364
▁74	-9.33822
▁serpin	-9.3448
▁SAM	-9.34685
CMP	-9.34836
▁nat	-9.34852
▁rep	-9.34923
▁anti	-9.34937
un	-9.3506
sulfat	-9.35074
ulf	-9.35171
▁region	-9.35458
hydrocarbon	-9.35526
ty	-9.35539
EF	-9.3635
▁CO	-9.36402
um	-9.36531
▁killer	-9.36598
set	-9.36959
▁54	-9.37028
▁kappa	-9.37035
39	-9.37042
-15	-9.37105
▁myome	-9.37344
▁si	-9.37405
phosphofructo	-9.37582
▁chondro	-9.37596
▁dystro	-9.37613
▁transm	-9.3779
▁casein	-9.37935
ial	-9.38334
▁53	-9.3838
▁toll	-9.38725
ceramide	-9.38791
ylase	-9.39169
thr	-9.39486
repeat	-9.39879
▁dys	-9.3993
ight	-9.39957
▁cas	-9.4058
▁acetyltransferase	-9.40855
▁ion	-9.409
▁diphospho	-9.40972
cking	-9.41042
ke	-9.41394
▁65	-9.41402
-17	-9.41645
OCS	-9.41663
oxide	-9.41712
▁ear	-9.41722
potassium	-9.41731
tach	-9.41825
▁METTL	-9.42016
x	-9.42072
jan	-9.42149
ga	-9.42213
▁the	-9.4224
▁inducer	-9.42343
leb	-9.42709
Z	-9.42912
rand	-9.43022
LRR	-9.43078
▁release	-9.43168
▁TFII	-9.43174
▁epithelial	-9.43241
▁cytoskelet	-9.43535
▁di	-9.43575
▁57	-9.43727
▁palmito	-9.43959
bindin	-9.44263
▁organiz	-9.44284
▁very	-9.44337
LIP	-9.44363
bl	-9.44416
(3)	-9.445
▁choline	-9.44553
octam	-9.44558
ipeptidyl	-9.44698
ut	-9.44728
(5)	-9.44869
HC	-9.44881
methyl	-9.45053
calcium	-9.45058
lipid	-9.45139
▁3'-	-9.45245
28	-9.45293
2,	-9.45296
37	-9.45308
▁apolipoprotein	-9.45466
▁RFX	-9.45486
brevi	-9.45545
▁ceramide	-9.45545
▁spindle	-9.4578
▁chromatin	-9.45977
▁sushi	-9.46643
ent	-9.46678
▁ran	-9.46754
▁triphosphat	-9.46828
▁Sec	-9.46936
▁HMG	-9.46995
▁purine	-9.47076
porin	-9.47147
formin	-9.47503
aldehyde	-9.47553
68	-9.47771
oxoglutarate	-9.47823
▁rhomboid	-9.47834
yocyte	-9.48397
▁55	-9.48687
embrane	-9.48841
▁end	-9.48879
▁LETM	-9.49035
▁tudor	-9.49035
▁MARCHF	-9.49036
▁spectrin	-9.49037
▁transform	-9.49177
▁response	-9.49179
lak	-9.49294
▁skeletal	-9.4945
ribose	-9.49555
onve	-9.49587
▁Z	-9.49726
ribosyla	-9.49807
lar	-9.49957
▁cullin	-9.50255
▁butyrophilin	-9.50257
▁plasma	-9.50263
glucose	-9.5032
▁thyro	-9.5037
ne	-9.51221
cysteine	-9.51413
all	-9.51448
▁NDRG	-9.51489
▁TTLL	-9.51517
fructose	-9.51537
▁48	-9.51887
▁prostaglandin	-9.51935
capp	-9.52103
▁GPI	-9.5216
▁disulfide	-9.52553
cator	-9.52694
▁diphosphoinositol	-9.52746
▁histo	-9.52747
▁ZNF	-9.52766
▁EGF	-9.52793
▁organi	-9.52938
other	-9.52953
▁41	-9.53007
▁46	-9.53429
▁for	-9.53688
tin	-9.53764
▁macrophage	-9.53906
▁re	-9.53932
rtu	-9.53954
▁netrin	-9.54007
▁secretion	-9.54124
transform	-9.54208
xin	-9.54324
ine	-9.54389
III	-9.54683
44	-9.54715
0	-9.54943
SH	-9.55202
acetylneuraminate	-9.55275
▁NACHT	-9.55287
▁myeloid	-9.55288
▁kallikrein	-9.55289
▁variant	-9.5529
▁phosphorylase	-9.553
an	-9.55475
▁metallo	-9.5596
-6-	-9.56179
igin	-9.56361
▁diphosphate	-9.56538
▁lyase	-9.56567
▁thioesterase	-9.56594
3,	-9.5661
ary	-9.56661
delta	-9.56664
▁43	-9.56951
35	-9.56986
▁He	-9.57047
▁ER	-9.57064
▁CDC	-9.57788
stasis	-9.57892
▁tail	-9.58017
▁mucin	-9.58023
▁31	-9.58126
AMP	-9.58147
▁sequence	-9.58187
carbon	-9.58308
pro	-9.58447
rC	-9.58492
55	-9.58529
penta	-9.58897
glutarate	-9.589
strand	-9.59014
guanine	-9.59057
▁heparan	-9.59106
▁AF	-9.59108
comp	-9.59173
-12	-9.59224
▁SLIT	-9.59234
▁cleavage	-9.59235
▁modifier	-9.59235
▁activity	-9.59287
▁dipeptidase	-9.5932
▁pyrophosphatase	-9.59343
▁BA	-9.59397
▁TH	-9.5964
ME	-9.59784
34	-9.60031
▁ad	-9.60102
eck	-9.60225
▁ch	-9.60229
▁SO	-9.60265
▁late	-9.60436
tyrosine	-9.6056
▁116	-9.60633
▁63	-9.60854
FI	-9.60904
▁PC	-9.6118
▁SP	-9.61304
bromo	-9.61393
ointegrat	-9.61501
RF	-9.61837
ease	-9.62045
ind	-9.62142
▁69	-9.62211
▁aminotransferase	-9.62269
estro	-9.62888
main	-9.63168
ron	-9.63194
▁envelope	-9.63345
RUN	-9.63383
isomerase	-9.63528
▁SPT	-9.63559
ucosyltransferase	-9.63803
▁neurol	-9.63828
▁secreto	-9.63886
adenosine	-9.63962
▁st	-9.64045
▁vo	-9.64295
mannosidase	-9.64742
▁calponin	-9.64753
▁NIPA	-9.64762
▁linker	-9.64771
amin	-9.64835
▁peri	-9.64938
ati	-9.65035
sulfur	-9.65045
▁angio	-9.65145
▁ethanolamine	-9.65211
▁nes	-9.65267
WWP	-9.65271
▁pyrophosphat	-9.65301
ppel	-9.6538
metabo	-9.65454
▁eng	-9.65667
gal	-9.6608
▁KRAB	-9.66181
▁DHX	-9.66181
▁ALG	-9.66197
▁post	-9.66232
▁transduc	-9.66288
▁ATG	-9.66293
▁cont	-9.66435
▁rRNA	-9.66439
convert	-9.66617
oncogene	-9.6673
▁methionine	-9.66786
adenine	-9.66806
ven	-9.66929
▁Sm	-9.67011
▁mismatch	-9.67631
ten	-9.67647
gamma	-9.67702
▁proto	-9.67763
lysin	-9.67852
▁eta	-9.67958
testis	-9.68078
tor	-9.68359
▁myo	-9.68882
OR	-9.68928
▁uridine	-9.69085
▁KCTD	-9.69099
▁TMEM	-9.69105
▁deoxyribonuclease	-9.69106
▁basi	-9.69119
BIR	-9.69171
▁GPR	-9.69181
▁plexin	-9.69198
ural	-9.69251
▁PA	-9.69265
▁arch	-9.69522
ylate	-9.69895
SC	-9.70277
LD	-9.70372
trisphosphate	-9.70594
▁SDR	-9.70606
virus	-9.70658
toxin	-9.70696
▁mesoderm	-9.70729
▁Nup	-9.70885
▁glycerol	-9.71046
helix	-9.71232
cs	-9.71478
ifier	-9.7176
ard	-9.71909
q	-9.72072
▁discoidin	-9.72109
▁Kru	-9.72112
▁meiosis	-9.72118
▁lethal	-9.72184
▁bas	-9.7233
▁MIC	-9.72398
▁Ig	-9.72472
▁ABC	-9.72599
YD	-9.72659
▁shi	-9.72873
AP	-9.72896
horin	-9.73202
▁secret	-9.734
▁LRR	-9.73562
▁access	-9.73647
▁WNK	-9.73651
cells	-9.73653
▁nucleosome	-9.73677
▁GRIP	-9.73735
▁carboxylase	-9.73772
IF	-9.73835
aj	-9.73853
▁side	-9.7391
tropic	-9.73961
igna	-9.73986
▁nuclease	-9.74375
DC	-9.74504
ldin	-9.74552
▁AN	-9.74568
ud	-9.74781
▁UB	-9.74794
it	-9.74853
ocyte	-9.75146
▁ur	-9.75165
▁pericentri	-9.75211
▁VPS	-9.75213
osyltransferase	-9.75272
▁eye	-9.75281
▁proliferation	-9.75375
FMR	-9.75618
GPI	-9.76011
▁RI	-9.76267
▁prote	-9.76315
ribonuclease	-9.76406
one	-9.76416
OU	-9.76617
-11	-9.76672
▁Sp	-9.7673
▁four	-9.76797
▁morphogene	-9.76797
▁autoantigen	-9.76797
▁claudin	-9.76804
tous	-9.7683
▁nicotinamide	-9.7695
▁filament	-9.76978
▁importin	-9.77037
▁COX	-9.77142
NP	-9.7738
end	-9.77579
RG	-9.77753
domains	-9.78036
ma	-9.7828
▁sm	-9.7831
oderm	-9.78342
▁homeodomain	-9.78419
▁recombination	-9.78439
▁aqua	-9.78461
▁49	-9.78641
▁annexin	-9.78646
os	-9.78805
galactosyl	-9.78848
▁structur	-9.78922
-18	-9.79063
▁inter	-9.7914
erlin	-9.79157
fatty	-9.79263
▁Ras	-9.79397
opine	-9.79494
poietin	-9.79553
IV	-9.79553
▁import	-9.798
▁WW	-9.79843
span	-9.8003
▁SET	-9.80054
rm	-9.80057
▁kynurenine	-9.80076
▁translocase	-9.80078
u	-9.80239
▁Aster	-9.80256
▁PAS	-9.80293
▁association	-9.80307
chromosomal	-9.80316
le	-9.80324
156	-9.8052
regul	-9.80558
XR	-9.80564
tubulin	-9.80929
▁cons	-9.80948
▁pr	-9.81305
▁NLR	-9.81322
lly	-9.81534
▁DPY	-9.81721
47	-9.81784
▁ca	-9.81859
▁LRRC	-9.81908
ck	-9.8201
PLA	-9.82148
chin	-9.82308
▁hepat	-9.82621
TS	-9.82903
▁mi	-9.82941
▁stimulator	-9.82984
45	-9.83061
lectin	-9.83103
cellular	-9.83284
ission	-9.8331
▁52	-9.83323
-14	-9.83389
▁katanin	-9.83409
▁intracellular	-9.8349
Gal	-9.83531
▁kinetochore	-9.83533
53	-9.83798
▁34	-9.84077
viral	-9.84305
140	-9.84404
▁polari	-9.84435
NOX	-9.84484
▁SA	-9.84558
▁170	-9.84747
TOR	-9.8477
58	-9.85021
▁v	-9.85024
▁ap	-9.85055
33	-9.85109
▁damage	-9.85133
▁magnesium	-9.85134
ja	-9.85145
UR	-9.85157
▁BCL	-9.85243
▁dehydratase	-9.85301
▁scaffold	-9.8537
▁SWI	-9.85389
▁aspartyl	-9.85487
▁133	-9.8558
growth	-9.85841
somal	-9.85867
phase	-9.859
▁activ	-9.85913
135	-9.86056
▁FG	-9.86471
myosin	-9.86554
▁loc	-9.86733
▁anhydrase	-9.86888
▁neurite	-9.86889
▁erb	-9.8692
▁carnitine	-9.86928
▁deubiquitina	-9.86945
▁NSL	-9.86965
ad	-9.87063
es	-9.87103
▁ribosome	-9.87107
RAS	-9.8714
▁vascul	-9.87183
palmitoyl	-9.87379
▁78	-9.87578
bin	-9.87747
▁88	-9.87777
▁fibr	-9.87811
ide	-9.87877
galactoside	-9.88153
▁mater	-9.88206
regulin	-9.88335
100-	-9.88348
▁vit	-9.88462
▁62	-9.88546
▁retinoi	-9.88561
▁meio	-9.88665
▁lambda	-9.88673
▁schlafen	-9.88673
▁centrosome	-9.88709
1,	-9.88773
▁oligomeri	-9.8895
yti	-9.89152
▁ATF	-9.89265
▁Dp	-9.89416
RAP	-9.89865
NAD	-9.89898
oblast	-9.89915
▁tr	-9.89972
▁prot	-9.90091
esh	-9.90114
6/	-9.90138
▁terminal	-9.90138
▁SETD	-9.9023
hydrolyzing	-9.90482
▁cross	-9.90491
▁DEP	-9.90521
▁PTB	-9.90713
▁NADPH	-9.90738
▁SMG	-9.90761
▁rib	-9.9089
▁mis	-9.91007
glycerol	-9.91016
▁mid	-9.91025
▁385	-9.91124
▁mitotic	-9.91315
▁guanyl	-9.91331
▁CW	-9.91458
▁jo	-9.91523
▁sterol	-9.9153
▁siali	-9.91568
▁phosphoinositide	-9.91604
▁colon	-9.91833
▁ve	-9.91844
▁BE	-9.91907
▁do	-9.92009
▁micro	-9.92028
aplegi	-9.92072
▁carbon	-9.92299
▁pregnancy	-9.92343
▁islet	-9.92344
▁biosynthesis	-9.92346
hydroxysteroid	-9.9235
▁FKBP	-9.92355
▁repeti	-9.92371
▁radiation	-9.92386
▁COE	-9.92393
▁phosphatid	-9.92458
▁tra	-9.925
▁IF	-9.92516
-1,2-	-9.92577
LA	-9.92919
neurin	-9.93015
oribonuclease	-9.93083
▁strom	-9.93085
ducin	-9.93144
▁cohesi	-9.93196
▁helix	-9.93404
erythrocyt	-9.93758
ning	-9.93854
6-	-9.93868
cyte	-9.93877
RIP	-9.94076
iz	-9.94082
▁sigma	-9.94228
▁absent	-9.94231
▁COMM	-9.94234
▁HERC	-9.94262
▁mitog	-9.9436
▁scra	-9.94387
90	-9.94628
roblast	-9.94677
cobalamin	-9.94947
▁repeats	-9.95222
sens	-9.95343
udin	-9.95372
atin	-9.95509
▁brea	-9.95553
▁arrest	-9.95926
▁kidney	-9.96152
▁MCM	-9.96157
▁TRAF	-9.96164
▁nucleoporin	-9.96176
▁hydratase	-9.96182
▁polyglutam	-9.96205
OTE	-9.96638
control	-9.96711
▁ser	-9.96852
▁tau	-9.97249
43	-9.97701
▁PAN	-9.97706
SNF	-9.97753
ROBO	-9.98104
▁RANBP	-9.98112
▁sphingomyelin	-9.98114
▁Myb	-9.98123
▁myb	-9.98154
▁CDK	-9.98192
enhanc	-9.98256
▁SLC	-9.98315
▁CCHC	-9.98355
▁LYR	-9.98511
▁retinol	-9.98534
thiol	-9.98775
oglycan	-9.98872
statin	-9.98967
ergin	-9.99115
46	-9.99213
ansk	-9.99218
ps	-9.9962
asparagin	-9.99682
alanine	-9.99777
▁homologous	-9.99992
▁decap	-10.0005
▁lymphocyte	-10.0007
▁ADAM	-10.0011
▁lebercilin	-10.0011
▁granulocyte	-10.0011
▁LSM	-10.0012
▁NMD	-10.0017
▁nebulin	-10.0019
▁neuropeptide	-10.002
tensin	-10.0023
▁up	-10.0044
entrin	-10.005
lexin	-10.0056
▁DB	-10.0073
▁protr	-10.0108
▁trip	-10.0112
▁u	-10.0118
▁85	-10.0119
zati	-10.013
▁266	-10.0138
hepsin	-10.0149
▁hea	-10.0149
▁tissue	-10.0215
▁circadian	-10.0215
▁degradation	-10.0215
▁Raly	-10.0217
WS	-10.0217
oxo	-10.0217
▁UBR	-10.0218
▁progra	-10.0219
▁TA	-10.0226
nd	-10.0228
▁uracil	-10.0233
-16	-10.024
preferr	-10.025
▁opioid	-10.025
sex	-10.0254
109	-10.0277
▁meta	-10.0277
ol	-10.0282
▁ne	-10.0297
NT	-10.0299
KN	-10.031
▁head	-10.0332
▁EL	-10.0352
4,	-10.036
▁3,	-10.0365
AF	-10.0369
de	-10.0391
scaffold	-10.0393
histidine	-10.0394
100	-10.0413
▁SNAP	-10.0423
▁upstream	-10.0424
mmed	-10.0426
▁translocation	-10.0426
▁UNC	-10.0427
▁glyco	-10.0431
▁metal	-10.0434
▁expression	-10.0447
rod	-10.0478
▁alk	-10.0487
4/	-10.0513
167	-10.0526
glutamate	-10.0541
ectin	-10.0557
carrier	-10.0562
'-5'	-10.0574
▁OTU	-10.0591
▁GL	-10.061
GTP	-10.0615
tamin	-10.0616
olyl	-10.062
act	-10.0625
▁sarcol	-10.0636
crystallin	-10.0636
▁motility	-10.0637
▁migration	-10.0637
▁progest	-10.0639
▁lipo	-10.0639
▁TATA	-10.0639
▁MMS	-10.064
NAc	-10.0653
ocal	-10.0654
▁microtubules	-10.0657
aug	-10.0671
▁organ	-10.0672
▁TOM	-10.0675
▁cystat	-10.0682
inst	-10.0694
▁75	-10.0698
▁synta	-10.0708
▁gel	-10.0732
nger	-10.0769
ication	-10.0773
▁ly	-10.0774
▁plan	-10.0786
▁fus	-10.0788
▁xylosyl	-10.0792
inhibit	-10.0795
GY	-10.0802
parti	-10.0804
aternal	-10.0827
re	-10.083
uracil	-10.0833
XIII	-10.0835
defensin	-10.0837
227	-10.084
amid	-10.0843
▁PIAS	-10.0853
▁TANC	-10.0853
▁plasminogen	-10.0854
▁androgen	-10.0855
▁pseudouridine	-10.0855
▁theta	-10.0861
▁RPC	-10.0871
▁histidine	-10.0883
▁RhoG	-10.0889
-1,6-	-10.0891
▁SAP	-10.0891
cave	-10.0892
▁site	-10.0901
▁83	-10.0905
▁FH	-10.0939
-13	-10.095
▁42	-10.0986
acetylglucosaminid	-10.1005
neu	-10.1031
inositol	-10.1032
erin	-10.1034
▁polycysti	-10.1043
▁monoglyc	-10.1046
idase	-10.1054
▁br	-10.1057
▁APOBEC	-10.1075
▁fukutin	-10.1075
▁filamin	-10.1076
▁fumarylacetoaceta	-10.1076
▁THAP	-10.1076
▁fast	-10.1081
▁snRNA	-10.1083
TY	-10.1085
▁sex	-10.1085
▁spo	-10.1086
93	-10.1103
▁liver	-10.1104
neur	-10.1122
▁MA	-10.1149
▁pyrophospho	-10.1161
ducing	-10.1164
▁ME	-10.1173
▁ga	-10.1194
(3	-10.1222
▁del	-10.1225
mbl	-10.1237
glycine	-10.124
dehydrogenase	-10.1244
EST	-10.1248
trophin	-10.127
remodeling	-10.1296
TSS	-10.13
▁diphthine	-10.1302
▁tectoni	-10.1303
oligosaccharide	-10.1303
▁pyridoxal	-10.1303
cortin	-10.1307
▁PEX	-10.1307
▁PMS	-10.1311
▁polyamine	-10.1313
origin	-10.1315
acetylgalactosamine	-10.1328
gat	-10.1338
▁KH	-10.1349
acetylgalactosaminid	-10.1365
▁TB	-10.1366
oporphyrinogen	-10.1392
tri	-10.1396
▁fu	-10.1407
KMT	-10.1426
idylyltransferase	-10.1432
phosphotransferase	-10.1444
ug	-10.1451
zinc	-10.1453
osin	-10.1473
▁mal	-10.1482
VI	-10.149
trafficking	-10.1524
66-	-10.1531
▁HHAT	-10.1535
loop	-10.1535
▁cytidylyltransferase	-10.1536
UMP	-10.1545
▁calci	-10.1546
matin	-10.1547
▁CREB	-10.1554
▁associated	-10.1558
BMX	-10.1561
fascin	-10.1563
lactosyl	-10.1567
▁centriol	-10.1595
1/	-10.1629
at	-10.1637
ky	-10.1641
▁SR	-10.1645
tant	-10.1647
Pu	-10.1656
uta	-10.1678
▁succinate	-10.1692
▁EH	-10.1694
ST	-10.1694
regulatory	-10.1722
conve	-10.1732
trypt	-10.1747
long	-10.1749
▁he	-10.1755
▁SPR	-10.1755
▁speedy	-10.1773
▁EZH	-10.1773
▁neuropilin	-10.1773
EN	-10.1777
ach	-10.1778
▁TBX	-10.1786
▁telomere	-10.179
acylglycerol	-10.179
▁TIA	-10.1805
86	-10.1808
▁musc	-10.1809
31	-10.1829
▁MAPK	-10.1833
▁cells	-10.1833
▁matri	-10.1854
▁CLI	-10.1855
▁recombin	-10.1859
co	-10.186
atory	-10.1888
▁ka	-10.1895
vesicular	-10.1896
▁IV	-10.1904
MS	-10.1919
▁adenyl	-10.1919
▁te	-10.1931
▁tast	-10.1953
▁sch	-10.1956
▁KI	-10.1966
axill	-10.1973
FAM	-10.1975
▁w	-10.1983
▁exo	-10.1993
▁50	-10.1994
DNF	-10.2003
sarcoglycan	-10.2017
▁hyaluronan	-10.2017
▁Kazal	-10.2017
uridine	-10.2019
secretase	-10.202
▁82	-10.2028
emet	-10.203
US	-10.203
nuclein	-10.2035
▁RCC	-10.2036
▁pu	-10.2056
▁defect	-10.2071
▁transposa	-10.2084
▁retin	-10.2113
polarization	-10.2113
▁inn	-10.212
rof	-10.2121
(5	-10.2127
lyase	-10.2185
▁NT	-10.2188
▁proprotein	-10.2208
▁selecti	-10.221
▁IR	-10.2214
▁CK	-10.2224
▁over	-10.2225
▁thiamin	-10.2239
bulin	-10.2245
CS	-10.2249
▁RalGPS	-10.2267
▁auxili	-10.2267
▁ester	-10.2269
▁primase	-10.227
rupt	-10.2271
patch	-10.2282
epimerase	-10.2282
LF	-10.2285
quili	-10.2292
▁inters	-10.2294
▁CB	-10.2302
▁248	-10.2303
▁90	-10.2316
BA	-10.2326
egulin	-10.2336
axin	-10.2351
▁PAC	-10.2361
▁translin	-10.2367
vig	-10.2369
erm	-10.2375
PL	-10.2441
▁dens	-10.2472
TF	-10.2487
ating	-10.2502
syntrophin	-10.2524
▁ACSM	-10.2524
▁ARIH	-10.2524
0319	-10.2524
▁EHMT	-10.2525
ato	-10.253
▁TNF	-10.2531
RCK	-10.2534
▁disco	-10.2538
target	-10.254
macrophage	-10.2541
lymphocyte	-10.2543
hydroxyacyl	-10.2551
▁glycogen	-10.2551
▁AAA	-10.256
▁endothelin	-10.256
▁WDR	-10.256
MRF	-10.2571
enzyme	-10.2571
aline	-10.2572
▁embryon	-10.2593
uro	-10.2597
FA	-10.26
▁amid	-10.2611
▁KIFC	-10.2637
99	-10.2644
52	-10.2658
▁coron	-10.2661
▁17-	-10.2691
▁matur	-10.2754
▁185	-10.2766
▁cat	-10.2766
▁neurotrophi	-10.2773
49	-10.2778
▁me	-10.2781
▁adipo	-10.279
▁prostate	-10.2793
▁SSU	-10.2797
pr	-10.28
▁dynactin	-10.2807
IP	-10.2812
▁ERCC	-10.2812
▁proenzyme	-10.2813
EL	-10.2815
leg	-10.2819
NA	-10.2823
fucose	-10.2825
mannose	-10.2826
guard	-10.284
DL	-10.2863
89	-10.2864
▁glucosamine	-10.2878
glutamine	-10.2888
link	-10.2892
▁su	-10.2907
lexi	-10.2935
2)-	-10.2936
igger	-10.2946
▁CC	-10.2948
AT	-10.2952
▁radi	-10.2957
▁homeo	-10.2965
▁fer	-10.297
4)-	-10.2972
induc	-10.2977
ilin	-10.2979
BCAP	-10.2989
inate	-10.2996
▁SC	-10.3009
▁SCM	-10.3028
independent	-10.3031
163	-10.3037
--	-10.3047
merization	-10.3052
homeo	-10.3054
▁q	-10.3056
val	-10.3056
▁glucocorticoid	-10.3057
encoded	-10.3057
▁neurobeachin	-10.3057
GlcNAc	-10.3057
ATPase	-10.3059
SF	-10.3061
▁cardiac	-10.307
ZO	-10.3071
▁can	-10.3074
▁CBL	-10.3086
ap	-10.3094
homologous	-10.3098
▁MAR	-10.3108
▁ribo	-10.311
over	-10.3113
osis	-10.3114
▁UV	-10.3114
▁enolase	-10.3116
▁161	-10.3117
tili	-10.3118
diphosphate	-10.3121
sphosphate	-10.3125
300	-10.3126
ute	-10.3141
▁FAD	-10.3142
▁lin	-10.3166
▁MIB	-10.3168
▁PI	-10.3183
formation	-10.3186
▁comb	-10.3198
▁ret	-10.3209
▁hepato	-10.3254
▁MOR	-10.3281
▁stabili	-10.3289
ster	-10.329
▁kin	-10.33
▁hypoxia	-10.3335
▁intestinal	-10.3335
▁cytohesin	-10.3335
▁TNFAIP	-10.3335
ulose	-10.3335
▁MICAL	-10.3335
▁adenoma	-10.3335
▁MYCBP	-10.3336
▁VRK	-10.3337
SANT	-10.3339
▁GGA	-10.3341
▁interacti	-10.3341
▁PS	-10.3342
▁germ	-10.3342
▁charge	-10.3345
▁fi	-10.3346
▁period	-10.3346
▁GDNF	-10.3354
artit	-10.3356
▁adenylyl	-10.3357
▁64	-10.3369
disulfide	-10.3374
ophilin	-10.3387
▁NSUN	-10.339
ex	-10.339
▁oxygenase	-10.3404
peptidase	-10.3446
DS	-10.3447
▁pol	-10.3453
PE	-10.346
onin	-10.352
pped	-10.3527
▁para	-10.3546
yt	-10.3556
mage	-10.3561
▁en	-10.3575
Pro	-10.3575
▁sprouty	-10.362
facial	-10.362
▁Mlh	-10.362
▁peptidoglycan	-10.362
▁RPABC	-10.362
▁smoothelin	-10.3621
dermin	-10.3622
▁slow	-10.3622
▁CEP	-10.3623
▁RRP	-10.3623
trypsin	-10.3623
▁PHTF	-10.3624
microtubule	-10.3624
irin	-10.3628
lipoxygenase	-10.3631
▁condensin	-10.3633
166	-10.3635
lath	-10.3639
▁cal	-10.3639
euk	-10.3651
ashi	-10.3688
▁sphingosine	-10.3698
phan	-10.3702
▁dolichyl	-10.3705
GDP	-10.3722
5-	-10.3726
corb	-10.3752
▁122	-10.3758
oly	-10.3761
▁hal	-10.3769
XVIII	-10.3772
▁gas	-10.3774
57	-10.3779
RAC	-10.3779
▁elong	-10.3783
▁galactosyl	-10.3787
GB	-10.3794
yly	-10.3805
▁lymphoma	-10.382
rr	-10.3833
rvi	-10.3875
citr	-10.3877
153	-10.3881
VB	-10.3883
anthra	-10.3906
▁dist	-10.3907
▁Ik	-10.3907
dr	-10.3912
nicotin	-10.3914
▁tryptophan	-10.3914
SNARE	-10.3914
▁afadin	-10.3914
▁chitinase	-10.3914
▁flavoprotein	-10.3914
118	-10.3915
▁TMTC	-10.3915
▁ciliogenesis	-10.3915
▁LPIN	-10.3915
▁myocardin	-10.3915
▁pigment	-10.3915
▁dystrophin	-10.3916
▁518	-10.3927
▁SSX	-10.3928
▁zona	-10.3938
▁retino	-10.3941
sh	-10.3943
▁macro	-10.3946
ans	-10.3965
lysosomal	-10.3968
monooxygenase	-10.3968
parat	-10.3971
anchor	-10.3975
adenosylhomocystein	-10.399
SS	-10.4
selecti	-10.4007
genesis	-10.4023
out	-10.4037
omer	-10.4041
▁El	-10.4041
adenosyl	-10.406
dihydro	-10.4061
RE	-10.4069
▁phase	-10.4078
ular	-10.4098
lic	-10.4104
▁TP	-10.4104
glycan	-10.4106
VL	-10.411
ickle	-10.4111
▁nephro	-10.4112
51	-10.4114
▁elast	-10.4115
PF	-10.4116
genic	-10.4151
▁91	-10.4154
▁vesicular	-10.417
-19	-10.4192
5,	-10.4193
▁ceramid	-10.4196
GE	-10.4211
▁kal	-10.4215
OG	-10.4217
▁rapamycin	-10.4218
▁DTX	-10.4218
▁aldo	-10.4218
▁DZIP	-10.4219
▁endosome	-10.4222
▁telomerase	-10.4223
ul	-10.4228
▁CTD	-10.4228
ting	-10.4233
▁Rap	-10.4235
RAM	-10.4238
topo	-10.4238
▁PRA	-10.4242
homeobox	-10.4249
▁localiz	-10.4268
▁peroxidas	-10.428
glucosyltransferase	-10.4287
▁cholester	-10.4288
yano	-10.4291
methylene	-10.4297
AS	-10.43
eclin	-10.4304
ab	-10.4327
▁polyadenylate	-10.4329
▁mot	-10.433
HF	-10.4331
agulat	-10.4332
refe	-10.4357
map	-10.4359
▁IB	-10.4359
▁RPA	-10.436
EM	-10.4373
ta	-10.4376
ifi	-10.4377
▁PT	-10.4406
▁gl	-10.4424
okine	-10.4424
▁be	-10.4447
▁TRI	-10.4453
rev	-10.4456
mpl	-10.4481
▁TAF	-10.449
▁amine	-10.4495
navi	-10.4526
▁Lhx	-10.453
▁TATDN	-10.453
▁pellucida	-10.453
▁calcineurin	-10.4531
▁angiotensin	-10.4531
▁Rh	-10.4531
▁STE	-10.4536
roid	-10.4543
▁nucleotid	-10.4551
▁PO	-10.4551
▁76	-10.4558
polymerase	-10.4561
▁phosphatidylcholine	-10.4561
▁thiamine	-10.4566
082	-10.4577
kin	-10.4583
lipin	-10.4593
▁ABCB	-10.4604
dioxygenase	-10.4604
▁ki	-10.4604
urin	-10.4611
▁ABCA	-10.4612
pyrimidin	-10.4618
aculo	-10.4622
tis	-10.4637
ladin	-10.4641
3'	-10.4644
32	-10.4662
▁sec	-10.4667
-34	-10.4671
Ras	-10.4677
▁lys	-10.4683
CD	-10.4683
▁sulfat	-10.4691
don	-10.4694
▁MAG	-10.4701
▁all	-10.4719
opey	-10.4728
IX	-10.4737
prol	-10.4749
107	-10.4754
hin	-10.4789
domain	-10.479
ulin	-10.4791
▁dimethyla	-10.4808
ophil	-10.4835
-5-	-10.4839
▁calcyphosin	-10.4853
▁notch	-10.4853
galactosidase	-10.4853
▁spindlin	-10.4853
dine	-10.4855
AN	-10.4857
▁striatin	-10.4857
▁EOLA	-10.4857
▁TAO	-10.4859
▁acrosome	-10.4859
edi	-10.486
▁POM	-10.486
▁BMP	-10.4861
ling	-10.4872
▁max	-10.4873
ecan	-10.4878
▁centro	-10.4879
▁DCC	-10.4885
▁run	-10.4896
edit	-10.49
oma	-10.4913
▁reticulo	-10.4917
strophin	-10.492
▁TM	-10.4922
poly	-10.4922
ARD	-10.4934
▁sial	-10.4937
od	-10.4946
transcriptional	-10.4948
▁150	-10.4948
▁chordin	-10.4948
calcin	-10.4949
▁termina	-10.4961
▁pi	-10.4961
▁hexokinase	-10.4965
izu	-10.4971
ens	-10.4976
59	-10.4979
integrat	-10.4988
▁IM	-10.4989
NK	-10.4991
do	-10.4994
CAS	-10.4999
▁lysosome	-10.4999
,8-	-10.5013
▁106	-10.5028
▁51	-10.5042
▁derm	-10.5045
IAP	-10.505
glutamyl	-10.5076
cepti	-10.5076
tonin	-10.5087
▁helica	-10.5095
▁cor	-10.512
ant	-10.5121
zation	-10.5122
ac	-10.5128
SWIM	-10.5139
PR	-10.5142
ssociation	-10.5144
olin	-10.5151
▁rac	-10.5174
875	-10.5174
▁pseudourid	-10.5185
▁phosphoribosyl	-10.5186
▁differentia	-10.5186
hionine	-10.5186
▁hyaluronidase	-10.5186
▁sarcoplasmic	-10.5186
▁selenocysteine	-10.5186
▁PLAGL	-10.5187
▁YTH	-10.5187
▁amidotransferase	-10.5188
▁PEAK	-10.5188
▁HEAT	-10.5189
▁MARK	-10.519
▁TGF	-10.519
▁CASP	-10.5192
ilio	-10.5192
▁NUDT	-10.5193
▁inosine	-10.5194
▁TET	-10.5194
▁broad	-10.5194
bou	-10.5197
RK	-10.5199
76	-10.5201
triphosphat	-10.5203
88	-10.5212
▁gem	-10.5215
▁vaso	-10.5218
▁PAX	-10.5223
va	-10.5226
▁na	-10.523
▁Bar	-10.5255
ume	-10.5264
▁sel	-10.5266
▁780	-10.5269
bra	-10.5273
▁GLI	-10.5279
ferentia	-10.5283
72	-10.5286
arrestin	-10.5288
▁pum	-10.5304
det	-10.5319
▁li	-10.532
peptide	-10.533
succinate	-10.536
dri	-10.5366
▁sus	-10.5367
UT	-10.5375
kx	-10.5382
HD	-10.5384
ogo	-10.5385
200	-10.5388
▁myc	-10.5393
ducer	-10.5397
palmito	-10.5402
alectin	-10.5405
zz	-10.5425
con	-10.5444
aptin	-10.5448
oid	-10.5454
▁7-	-10.5457
av	-10.5469
▁hydroxylase	-10.5475
plicat	-10.5494
roline	-10.5494
aryo	-10.5494
▁ec	-10.5498
▁hydro	-10.5507
▁epimerase	-10.551
▁shu	-10.5513
orter	-10.5525
quinone	-10.5529
▁pathway	-10.5531
▁tenascin	-10.5531
▁fidgetin	-10.5531
▁PRRC	-10.5532
▁fibrocystin	-10.5532
▁symp	-10.5535
cyclohydrolase	-10.5535
▁lysophospholipase	-10.5536
▁ROR	-10.5538
aki	-10.5548
▁2/3	-10.5549
▁68	-10.5553
osa	-10.556
▁PRP	-10.5561
▁DIS	-10.5577
AM	-10.5579
RISC	-10.5587
069	-10.5589
minin	-10.5596
COM	-10.5598
aminase	-10.561
WE	-10.5611
diphospho	-10.5612
et	-10.5613
class	-10.5623
▁ATR	-10.563
Rab	-10.5632
▁Nat	-10.5634
-5,	-10.5636
inter	-10.5643
lymphoma	-10.5644
flavin	-10.5646
ATS	-10.5672
catal	-10.5683
KS	-10.5692
▁SHC	-10.5706
▁induc	-10.5709
▁Na	-10.571
VII	-10.5739
PAN	-10.5747
5)-	-10.5752
omega	-10.5768
RNA	-10.5777
ctin	-10.5785
-5'-	-10.5797
side	-10.5812
ick	-10.5831
▁mannose	-10.5842
▁131	-10.5845
▁dia	-10.5846
84	-10.5872
137	-10.5875
▁Ly	-10.5883
▁HECW	-10.5888
▁presenilin	-10.5888
▁threonylcarbamoyltransferase	-10.5889
▁Tim	-10.589
▁ninein	-10.5891
abo	-10.5891
▁CCDC	-10.5891
-(1,	-10.5892
riu	-10.5894
▁apopto	-10.5903
▁FXYD	-10.5904
▁fr	-10.5906
▁heme	-10.5909
▁YY	-10.5912
CA	-10.5937
▁relaxin	-10.594
ade	-10.5943
dica	-10.5943
▁cutic	-10.5947
▁Sen	-10.5958
REB	-10.5981
arkin	-10.5986
Gly	-10.5999
▁exos	-10.6
resistance	-10.6006
retic	-10.6007
▁leuko	-10.6007
phosphatidylethanolamine	-10.6012
▁fo	-10.6012
myo	-10.6034
▁adren	-10.6036
▁TE	-10.6045
duction	-10.6055
globulin	-10.6077
creati	-10.608
ining	-10.612
app	-10.6124
acylase	-10.6127
▁peroxi	-10.6128
126	-10.6133
▁deoxy	-10.6135
hydroxymethylglutar	-10.6135
mon	-10.6137
▁centr	-10.6147
▁2'-	-10.6193
bon	-10.6197
▁IIB	-10.62
ota	-10.6227
▁phosphatidyl	-10.6229
lios	-10.6239
▁pancrea	-10.624
▁160	-10.6246
▁ubi	-10.6249
▁sal	-10.6255
LEC	-10.6256
▁cytotoxic	-10.6258
▁droplet	-10.6258
▁hairless	-10.6258
▁connect	-10.6259
▁STEAP	-10.6259
▁ULK	-10.626
▁NUBP	-10.6263
villin	-10.6263
redoxin	-10.6264
VE	-10.6267
▁77	-10.6274
▁synapse	-10.628
cystin	-10.6291
semi	-10.6303
▁NSF	-10.6304
▁aug	-10.6307
ohydrolase	-10.6322
▁135	-10.6322
guanosine	-10.6342
thine	-10.6347
▁phenyl	-10.6347
▁cereb	-10.6359
▁smooth	-10.636
LC	-10.6373
▁121	-10.6386
differentiation	-10.6388
7,	-10.6389
FM	-10.6389
strin	-10.641
phosphoinositide	-10.6411
isoform	-10.6415
to	-10.6427
ome	-10.6428
▁limb	-10.6429
(38	-10.6432
79	-10.644
FDC	-10.6441
fold	-10.647
ensin	-10.6477
▁pyr	-10.649
▁synt	-10.6498
transportin	-10.6518
FH	-10.6536
tau	-10.6544
▁71	-10.6546
▁280	-10.6586
▁dC	-10.659
▁sp	-10.6616
tosin	-10.6629
▁XK	-10.664
▁ASXL	-10.6643
▁candidate	-10.6643
▁huntingtin	-10.6643
▁CXXC	-10.6643
▁Tpm	-10.6643
''	-10.6643
▁Chk	-10.6643
▁src	-10.6643
(0)	-10.6645
▁LMBR	-10.6645
pressin	-10.6646
▁GIT	-10.6648
▁mTOR	-10.665
▁endosomal	-10.6651
▁CTCF	-10.6658
XIX	-10.6659
▁argin	-10.6663
▁MTA	-10.6669
▁MFS	-10.6675
-2(	-10.6676
▁developmental	-10.6679
▁xa	-10.6684
▁triple	-10.6686
gos	-10.6688
▁conta	-10.6695
arin	-10.6696
▁fur	-10.6697
▁DC	-10.6702
synthase	-10.6715
▁SLA	-10.6718
▁SNF	-10.6726
▁endopeptidase	-10.6738
Man	-10.6744
7-	-10.6757
ti	-10.6763
▁ves	-10.6769
▁synapton	-10.6773
▁cornifi	-10.6773
63-	-10.6777
tetra	-10.6781
fen	-10.6788
enes	-10.6791
▁ep	-10.6791
RN	-10.6797
▁steroid	-10.6804
▁sulf	-10.685
MC	-10.6862
▁hist	-10.6872
▁72	-10.69
172	-10.6904
cl	-10.6928
AZ	-10.6935
decan	-10.6949
om	-10.695
cycl	-10.6954
form	-10.6964
▁male	-10.6966
189	-10.6966
▁arrestin	-10.6974
6)-	-10.6975
▁CP	-10.6986
▁1,2-	-10.6998
(2)	-10.6999
AK	-10.7015
▁196	-10.7021
HE	-10.7025
cardio	-10.7028
ene	-10.7031
▁lipocalin	-10.7043
▁pituitary	-10.7043
▁retrotransposon	-10.7043
▁stomatin	-10.7043
▁YIPF	-10.7043
▁methylthiotransferase	-10.7043
▁folliculin	-10.7044
▁lysozyme	-10.7044
▁cdc	-10.7044
▁epididymal	-10.7044
▁regenerati	-10.7044
hexosamin	-10.7045
kop	-10.7046
NO	-10.7046
▁dihydropyrimidinase	-10.7047
▁FUT	-10.7053
▁IC	-10.7063
TO	-10.7068
▁hydroxy	-10.7075
▁carcinoma	-10.7076
inoid	-10.7079
▁140	-10.7081
▁ERC	-10.7084
▁NTR	-10.7096
▁RIC	-10.7101
▁PAT	-10.7107
▁MON	-10.7112
cy	-10.7114
▁prima	-10.7135
▁glyox	-10.7153
lastin	-10.7163
orni	-10.7165
-32	-10.7171
▁edit	-10.7177
TP	-10.7179
sa	-10.7185
▁3'	-10.7191
formyl	-10.7192
PI	-10.7195
glutathione	-10.7213
glucosidase	-10.7215
▁arg	-10.7244
-27	-10.7249
▁threonine	-10.725
▁176	-10.725
sy	-10.7254
RM	-10.7266
SD	-10.7268
amide	-10.7275
elin	-10.729
▁testic	-10.7297
PX	-10.7301
▁HO	-10.7303
ET	-10.7317
rk	-10.7322
▁ni	-10.7347
▁bica	-10.7355
ona	-10.7355
▁far	-10.7356
ellin	-10.7367
utat	-10.739
ot	-10.7394
methionine	-10.7449
▁nudE	-10.746
▁hippocalcin	-10.746
macroglobulin	-10.746
▁erythroid	-10.746
▁stress	-10.746
alogenase	-10.746
▁prolactin	-10.746
ypica	-10.7461
▁SIK	-10.7463
▁renal	-10.7463
▁zone	-10.7465
▁deh	-10.7466
▁TIAM	-10.7466
▁geranylgeranyl	-10.7468
▁LRP	-10.7469
▁GLIS	-10.747
▁artemi	-10.7483
endoplasmi	-10.7487
▁anky	-10.7495
isovaler	-10.752
▁copper	-10.7523
95	-10.7532
▁NH	-10.7539
▁neura	-10.7542
▁electro	-10.7547
▁SETDB	-10.755
▁metalloprote	-10.7553
▁POC	-10.7555
193	-10.7558
▁meth	-10.7559
▁BRO	-10.7574
▁fas	-10.7576
▁gra	-10.7597
ribu	-10.7602
▁EX	-10.7612
ophreni	-10.7621
▁thymid	-10.7644
▁sc	-10.7654
IDE	-10.7656
▁pal	-10.7658
▁HI	-10.7669
cat	-10.7674
▁ge	-10.7676
▁formi	-10.7677
propion	-10.768
▁dyst	-10.7685
erv	-10.7693
▁aspartate	-10.7694
amm	-10.7705
▁thym	-10.7708
▁gran	-10.7728
-1,	-10.7729
tanoyl	-10.7753
CN	-10.7786
▁glucosyltransferase	-10.7797
▁electron	-10.7804
▁reticul	-10.7806
▁ang	-10.7823
chi	-10.7841
LPI	-10.7843
▁neur	-10.7862
glycyl	-10.7875
▁225	-10.7892
▁Shroom	-10.7894
▁HECTD	-10.7894
▁follistatin	-10.7894
▁placenta	-10.7894
▁spermatid	-10.7895
phyrin	-10.7895
▁lymphoid	-10.7895
▁10-	-10.7895
▁biotin	-10.7896
▁CFAP	-10.7897
▁BTG	-10.7899
▁NCK	-10.7902
▁WAP	-10.7904
zzy	-10.7905
roqu	-10.7907
▁180	-10.7909
▁pseudogene	-10.7914
▁200	-10.7916
▁chromati	-10.7918
mortali	-10.792
▁MORC	-10.792
▁227	-10.7928
ogenin	-10.7928
▁Mx	-10.7939
▁kaz	-10.7944
1257	-10.7946
▁MOB	-10.7948
▁331	-10.7948
060	-10.7951
nuclear	-10.7955
rataxin	-10.7963
▁192	-10.7976
▁ELL	-10.7976
▁parathy	-10.7981
sociation	-10.7982
TYK	-10.7983
imin	-10.7991
illin	-10.7992
ban	-10.8009
leucine	-10.8011
-3(	-10.8015
signal	-10.8016
71	-10.8019
OX	-10.8035
▁nog	-10.8035
110	-10.8037
erol	-10.8041
▁HU	-10.8049
▁80	-10.8052
▁125	-10.8071
▁cut	-10.808
enhancer	-10.8084
chaperone	-10.8094
-6(	-10.81
aspartate	-10.8101
myc	-10.8101
▁232	-10.8102
67	-10.8105
sialo	-10.8107
▁val	-10.8117
▁94	-10.8117
oyl	-10.8129
▁141	-10.8142
▁mas	-10.815
unda	-10.8161
▁TRP	-10.8163
abin	-10.8177
▁100	-10.8187
▁178	-10.819
ip	-10.8192
▁WWP	-10.8192
estin	-10.8194
▁NADP	-10.8231
foldin	-10.8246
BX	-10.8254
▁form	-10.8258
▁HA	-10.8269
▁microfibril	-10.8277
▁dipeptid	-10.8283
CaM	-10.829
175	-10.8302
▁hydroxyacyl	-10.8313
PP	-10.8314
▁molecul	-10.8318
▁calpa	-10.8324
▁SE	-10.8327
amida	-10.8331
▁no	-10.8334
▁polyp	-10.8339
▁120	-10.8342
▁UHRF	-10.8349
▁synaptopodin	-10.8349
▁peripheral	-10.8349
▁glucosylceramid	-10.8349
▁ACSF	-10.8349
▁PKNOX	-10.8349
▁medium	-10.8349
▁germinal	-10.835
▁RBBP	-10.8351
▁ranBP	-10.8354
73	-10.8359
83	-10.8373
▁BP	-10.8379
▁RAB	-10.8382
sterol	-10.8382
ded	-10.8391
▁oxide	-10.8396
▁arm	-10.8396
CIA	-10.8397
nab	-10.8397
rial	-10.8399
neuromedin	-10.8405
halo	-10.8405
▁coli	-10.8421
561	-10.8425
SN	-10.8438
ATA	-10.8445
▁clusterin	-10.8472
ribble	-10.849
CL	-10.8503
▁glycero	-10.8505
▁Ha	-10.8507
▁Mu	-10.8509
nilin	-10.851
-2,	-10.8527
▁deoxycytid	-10.8559
leukemia	-10.857
ms	-10.858
,5-	-10.8585
butyra	-10.8596
GL	-10.8641
▁oncogene	-10.8643
▁MTR	-10.8644
der	-10.8651
▁fold	-10.867
glutam	-10.8685
▁184	-10.8687
modulin	-10.8689
anoc	-10.8721
▁proteins	-10.8724
FO	-10.8733
nexin	-10.8738
ergi	-10.8744
epsin	-10.8763
LAM	-10.8765
pantothenate	-10.8771
▁tyros	-10.8785
nsin	-10.8794
adenylat	-10.8794
▁lymphocyt	-10.88
▁RF	-10.8801
acetylglucosaminyl	-10.8823
spondin	-10.8825
▁progesterone	-10.8825
▁aggre	-10.8825
▁TGIF	-10.8825
▁SorCS	-10.8825
▁HORMA	-10.8825
▁glutaredoxin	-10.8825
▁DCLK	-10.8825
▁BRSK	-10.8825
▁stathmin	-10.8825
▁fibrinogen	-10.8825
▁SMYD	-10.8825
▁podocan	-10.8825
▁whi	-10.8825
▁Meis	-10.8825
▁antiviral	-10.8827
as	-10.8827
▁subcomponent	-10.8828
▁gastric	-10.8832
▁guid	-10.8836
plastin	-10.8837
(2'	-10.8855
▁phosphoribosyltransferase	-10.8855
▁RPB	-10.8855
blo	-10.8856
▁USP	-10.8866
▁granule	-10.8886
tig	-10.889
medin	-10.8893
▁SAC	-10.8893
▁vi	-10.8902
block	-10.8903
▁asparagine	-10.8919
▁collect	-10.8925
146	-10.8942
▁PN	-10.8976
▁as	-10.8993
ogenesis	-10.9004
formylglycin	-10.9007
ergen	-10.901
▁CYB	-10.9023
IC	-10.9023
▁coi	-10.9038
alonate	-10.9046
▁per	-10.9066
HB	-10.9084
MAK	-10.9086
maint	-10.9093
enyl	-10.9099
▁mast	-10.9102
▁IN	-10.9109
▁175	-10.9134
CAP	-10.9136
strom	-10.9154
exin	-10.9167
minotransferase	-10.9176
sn	-10.9187
thio	-10.9188
▁synap	-10.9198
217	-10.9219
149	-10.9232
▁SPO	-10.9254
polyprenyl	-10.9262
▁ASH	-10.9264
▁melano	-10.9268
sol	-10.928
stabiliz	-10.9308
minase	-10.9318
▁HEXIM	-10.9325
▁aminocarboxypropyltransferase	-10.9325
▁hematopoietic	-10.9325
▁dishevel	-10.9325
▁system	-10.9325
▁THEMIS	-10.9325
▁uromodulin	-10.9325
taxilin	-10.9325
▁microcephal	-10.9325
▁SATB	-10.9325
▁Mdm	-10.9325
saccharide	-10.9329
-4-	-10.9331
(6)-	-10.9335
▁plako	-10.9348
ay	-10.9369
▁MAN	-10.9376
host	-10.9378
▁glycop	-10.9379
▁RU	-10.9382
▁reduc	-10.9383
▁aromat	-10.9383
▁RB	-10.9394
▁tuber	-10.9396
umb	-10.9401
▁glob	-10.9403
▁sep	-10.9404
▁NKG	-10.9404
▁dei	-10.9416
▁Ni	-10.9437
▁XIAP	-10.9473
ECT	-10.9474
ARF	-10.9478
78	-10.9479
methylase	-10.9484
CH	-10.9491
▁TIM	-10.9508
ogen	-10.9513
▁234	-10.9515
-20	-10.9525
▁spin	-10.9532
105	-10.9539
ther	-10.9547
(2)-	-10.9555
plic	-10.9556
ferrin	-10.9558
BT	-10.9569
deacetylase	-10.958
ylyltransferase	-10.9581
chromosome	-10.9584
center	-10.96
KAP	-10.9606
▁radia	-10.9606
WAS	-10.9621
line	-10.9621
ANK	-10.9623
SMC	-10.9625
▁SMC	-10.963
▁EV	-10.9633
oligo	-10.9644
▁171	-10.965
su	-10.9652
▁va	-10.9657
ethanolamine	-10.9681
▁157	-10.9685
▁oxid	-10.9701
▁kre	-10.9705
▁FAS	-10.9718
br	-10.9718
lit	-10.9721
▁chromo	-10.9722
20-	-10.9724
sulf	-10.9727
SPA	-10.9732
align	-10.974
eg	-10.9743
▁my	-10.9745
PN	-10.975
▁REL	-10.9758
▁att	-10.9759
▁urid	-10.977
XXI	-10.977
phosphorylat	-10.9785
STAM	-10.9787
oyltransferase	-10.9799
cul	-10.9809
▁by	-10.9809
galactosami	-10.9814
ure	-10.9831
nsco	-10.984
age	-10.9841
▁azoospermia	-10.9851
▁cartilage	-10.9851
▁dihydrolipoyl	-10.9851
▁TDRD	-10.9851
▁FLRT	-10.9851
▁PPIL	-10.9851
▁TARBP	-10.9852
▁DDHD	-10.9853
▁procollagen	-10.9853
▁CXorf	-10.9855
▁frag	-10.9858
▁ALK	-10.986
adia	-10.986
▁IMP	-10.9865
▁SIX	-10.9875
▁HRG	-10.9875
▁arr	-10.9881
▁350	-10.9883
▁neurotr	-10.9885
lactosaminid	-10.9894
▁mini	-10.9895
je	-10.9897
▁5'	-10.9906
▁ciliary	-10.9907
▁84	-10.9909
▁BB	-10.9912
osine	-10.9915
life	-10.9922
▁retinal	-10.9924
ter	-10.9931
pine	-10.9932
▁67	-10.9951
▁107	-10.9959
gy	-10.996
▁speckle	-10.9968
-40	-10.9981
▁is	-10.9984
can	-10.9987
log	-11.0011
-2/	-11.0031
IN	-11.0101
00	-11.0105
RBA	-11.011
head	-11.0121
BS	-11.0125
'	-11.0127
din	-11.0134
(7)-	-11.0144
lysosome	-11.016
mmal	-11.0164
ros	-11.0164
▁FY	-11.0164
SR	-11.0168
▁glucosidase	-11.0173
LP	-11.0196
▁cent	-11.0197
transferrin	-11.0201
pin	-11.0204
EX	-11.0204
/6	-11.0214
▁ina	-11.0224
▁IL	-11.0237
erve	-11.0253
spermine	-11.0256
RWD	-11.0274
▁link	-11.0286
FY	-11.0292
▁aminoacyl	-11.0303
dopa	-11.0313
▁CL	-11.0316
130	-11.0316
▁SI	-11.0336
lact	-11.0337
stonin	-11.0338
▁sen	-11.0352
tactin	-11.0378
▁condens	-11.0382
▁ARHG	-11.0388
chrome	-11.0389
▁zer	-11.0391
▁ro	-11.0394
ov	-11.0396
▁mitochondria	-11.0398
fi	-11.0399
▁surf	-11.0399
▁CNNM	-11.0407
▁marker	-11.0407
▁rhotekin	-11.0407
▁cortactin	-11.0407
phosphatidyltransferase	-11.0407
0895	-11.0407
▁synaptophysin	-11.0408
▁VAV	-11.0411
▁EMI	-11.0412
▁TTC	-11.0412
CBP	-11.0415
lactosamine	-11.0417
▁Prp	-11.0419
▁LATS	-11.0419
▁NUP	-11.0421
▁lysyl	-11.0424
▁ERR	-11.0424
▁CRA	-11.0426
▁onco	-11.043
▁chorion	-11.0431
ied	-11.0435
tenin	-11.0453
▁heparanase	-11.0463
198	-11.0469
▁ZC	-11.0471
▁XRCC	-11.0484
▁GATA	-11.0491
▁GMP	-11.0492
▁termin	-11.0493
ser	-11.0508
phosphoryla	-11.0509
monophosphat	-11.0513
otropin	-11.0515
▁NK	-11.0515
ki	-11.0517
UB	-11.0518
▁EP	-11.0519
ACA	-11.0523
▁CCN	-11.0541
teri	-11.0555
▁pe	-11.0579
▁pell	-11.058
214	-11.0584
lo	-11.0587
▁synaps	-11.06
96	-11.0609
▁striat	-11.061
ova	-11.0623
▁mutase	-11.0626
8-	-11.0655
tumor	-11.0655
carboxy	-11.066
▁59	-11.0686
SY	-11.0688
▁cave	-11.0698
▁somato	-11.07
mind	-11.0701
▁lysophospholip	-11.0708
mutase	-11.0725
hrin	-11.0745
87	-11.0748
chromatin	-11.075
adren	-11.0753
▁LM	-11.0754
ally	-11.0766
adeno	-11.0772
▁pros	-11.079
eva	-11.0792
tak	-11.0806
▁APC	-11.082
cer	-11.0828
▁pat	-11.0843
▁alkyl	-11.0856
acetylgalactosamin	-11.087
▁RE	-11.0872
Cl	-11.0909
XI	-11.0917
trea	-11.0918
ES	-11.092
▁mut	-11.0923
sta	-11.0948
alcium	-11.0956
annom	-11.0965
85	-11.0977
▁oxida	-11.0979
▁LAC	-11.0982
XVI	-11.0987
▁rhombo	-11.0995
parvin	-11.0995
uellerian	-11.0995
▁ACSBG	-11.0995
▁ITPRID	-11.0995
▁CRELD	-11.0995
▁angiomotin	-11.0995
▁obscurin	-11.0995
▁attractin	-11.0995
▁nudC	-11.0995
▁hyper	-11.0995
▁NDUFAF	-11.0995
mediat	-11.0996
▁PALS	-11.0997
▁Fe	-11.0997
▁ETV	-11.0997
▁thyrotropin	-11.0998
▁dermat	-11.0998
▁leng	-11.1002
▁PDSS	-11.1003
▁seleno	-11.1003
▁HSP	-11.1004
▁colipase	-11.1004
▁NPC	-11.1005
▁PRKC	-11.1005
▁opsin	-11.1005
BRA	-11.1005
▁mamma	-11.1007
▁Di	-11.1008
ankyr	-11.1008
Delta	-11.1011
▁SLX	-11.1015
7)-	-11.1016
wi	-11.1017
102723	-11.1023
Glc	-11.1029
▁neurotrophin	-11.103
velo	-11.1053
400	-11.1059
▁mannosyl	-11.1063
ino	-11.1094
▁alanine	-11.1094
LMO	-11.112
hy	-11.1133
70	-11.1136
▁erythrocyt	-11.1155
▁AM	-11.1156
▁SS	-11.1165
eckel	-11.1174
ism	-11.1176
TM	-11.1177
globin	-11.119
resid	-11.1207
▁phosphopantothen	-11.121
DM	-11.1225
CC	-11.1226
2/	-11.1232
▁CH	-11.1261
▁87	-11.1263
opropan	-11.1269
▁ami	-11.1276
▁172	-11.1299
2'-	-11.1313
two	-11.1313
▁169	-11.1318
▁CSK	-11.1338
▁fri	-11.1353
▁cytos	-11.1356
nate	-11.1357
epidermal	-11.1361
steroid	-11.1361
14-	-11.1361
),	-11.1363
▁92	-11.137
▁car	-11.1376
HS	-11.1381
ippe	-11.1407
▁IG	-11.1408
tek	-11.1432
,5'-	-11.144
▁hemo	-11.144
▁TSS	-11.1441
65	-11.1444
ASH	-11.1466
SL	-11.1469
▁amphip	-11.1486
inic	-11.1509
-31	-11.1521
250	-11.1522
promoti	-11.1534
mokine	-11.1544
mona	-11.1545
▁iro	-11.1551
hot	-11.1584
lein	-11.1585
nduct	-11.1599
generati	-11.1605
varian	-11.162
degrad	-11.162
aminolevulin	-11.162
▁HIVEP	-11.162
▁intestine	-11.162
▁megakaryocyte	-11.162
▁thromboxane	-11.162
residue	-11.162
▁drebrin	-11.162
▁pyrophosphorylase	-11.162
▁raftlin	-11.162
▁ganglioside	-11.162
isoaspartate	-11.162
▁nicotinate	-11.162
oxyacyl	-11.1621
▁sulfurtransferase	-11.1621
▁urokinase	-11.1621
loride	-11.1622
▁squa	-11.1623
transferring	-11.1625
Lys	-11.163
▁TRM	-11.1631
▁VIP	-11.1636
deiodinase	-11.1637
opy	-11.1638
scute	-11.1646
▁ABL	-11.165
emp	-11.1666
▁dem	-11.1671
▁oral	-11.1679
▁melanocortin	-11.168
▁CWC	-11.1681
▁NSD	-11.1686
own	-11.1696
alase	-11.1706
▁148	-11.1711
VP	-11.1715
bilin	-11.1715
LL	-11.1736
maltase	-11.1737
ety	-11.1741
acetylgalactosaminyl	-11.1745
▁elongin	-11.1756
▁TPR	-11.1761
UF	-11.1776
▁EEF	-11.1777
tle	-11.1778
ptin	-11.178
▁prosta	-11.1788
▁con	-11.1794
cute	-11.1811
ch	-11.1814
▁axin	-11.185
▁xyl	-11.1864
-1,4	-11.1867
070	-11.1867
▁TEL	-11.188
▁hem	-11.1897
(7	-11.1901
uridyl	-11.1908
▁8-	-11.1912
pha	-11.1913
clin	-11.1917
glucuronyl	-11.1919
IIIa	-11.192
048	-11.1921
▁test	-11.1937
98	-11.1938
retinoi	-11.1953
108	-11.1957
▁desmo	-11.1957
gg	-11.1977
sorting	-11.1983
▁der	-11.1984
Dol	-11.1998
▁x	-11.2031
prostaglandin	-11.2037
deoxyribo	-11.204
HO	-11.2056
omoter	-11.2074
▁glutamin	-11.2079
▁383	-11.208
DD	-11.2092
▁182	-11.2096
▁OS	-11.2122
▁sarco	-11.2128
anion	-11.214
osomal	-11.214
▁glia	-11.2153
▁FL	-11.2162
iny	-11.2166
be	-11.2169
▁329	-11.2177
ld	-11.2179
inhibitor	-11.219
▁transpo	-11.2192
arm	-11.22
▁rad	-11.2211
▁integra	-11.2214
elet	-11.2243
567	-11.2244
▁FA	-11.2252
▁nebul	-11.2262
spin	-11.2272
modif	-11.2287
▁FLYWCH	-11.2287
▁metallothionein	-11.2287
skipped	-11.2287
▁TIKI	-11.2287
▁modification	-11.2287
▁tuftelin	-11.2287
▁SPARC	-11.2287
▁LAMTOR	-11.2287
▁queu	-11.2287
▁zyg	-11.2287
▁adipocyte	-11.2288
▁ovo	-11.2288
▁LSm	-11.2289
▁LBH	-11.2289
▁PLK	-11.229
ykinin	-11.229
▁NELL	-11.2292
▁PDE	-11.2292
▁luna	-11.2294
choriogonadotropi	-11.2295
▁Fyn	-11.2296
▁iodot	-11.2296
hook	-11.2298
▁PDS	-11.23
enk	-11.23
▁AKT	-11.2301
branched	-11.2305
▁260	-11.2306
▁UT	-11.2307
▁TOX	-11.2308
IXa	-11.231
load	-11.2314
▁cystein	-11.2327
▁chi	-11.233
▁caveol	-11.2334
gulator	-11.2345
177	-11.2348
sarcoma	-11.2365
dic	-11.2367
▁pig	-11.2369
▁112	-11.2371
▁(3	-11.2374
▁MID	-11.2378
▁CCA	-11.2386
60-	-11.2412
acent	-11.2416
ical	-11.2431
▁gen	-11.244
tory	-11.2443
ammonia	-11.2446
▁UTP	-11.246
▁PIG	-11.2461
▁LE	-11.2474
81	-11.2475
methylglutar	-11.2477
▁formimi	-11.2477
ni	-11.2496
▁dop	-11.2498
sable	-11.252
lf	-11.2534
oblastoma	-11.2555
lumen	-11.2562
222	-11.2572
▁par	-11.2582
▁86	-11.2585
histone	-11.2604
▁4,	-11.2606
(1)	-11.2623
▁lact	-11.2627
▁My	-11.2639
74	-11.2645
eoplas	-11.2679
RP	-11.2679
Ran	-11.2688
▁gluco	-11.2698
183	-11.2715
yme	-11.2717
▁89	-11.2717
▁hepati	-11.2718
Golgi	-11.2718
qui	-11.2718
iva	-11.2718
pyr	-11.274
▁glycosyl	-11.2742
41	-11.2746
▁POZ	-11.2751
hexokinase	-11.2752
estrogen	-11.2752
rop	-11.2765
▁ectonucleo	-11.2765
butyr	-11.2771
KL	-11.2778
gel	-11.2779
▁stimulat	-11.2784
▁sent	-11.2787
uri	-11.2801
48	-11.2813
rlin	-11.282
dase	-11.2828
organi	-11.2831
solu	-11.2833
stin	-11.2835
glucosamine	-11.2842
Ro	-11.2858
▁sulfi	-11.2868
embry	-11.2904
▁fucose	-11.2913
colipin	-11.2923
NADP	-11.2933
▁subtype	-11.2935
▁telomer	-11.2937
▁fibrill	-11.294
▁muscul	-11.2952
▁SW	-11.2957
▁retina	-11.2959
▁SF	-11.2968
typ	-11.299
▁farnesyl	-11.2995
carboxypropyl	-11.3001
▁molybd	-11.3001
▁MACROD	-11.3001
▁intrinsic	-11.3001
▁mutarotase	-11.3001
▁osteoclast	-11.3001
glucoamylase	-11.3001
▁ventricular	-11.3001
▁plakoglobin	-11.3001
▁ALOX	-11.3001
▁ezrin	-11.3002
▁PRDM	-11.3002
▁thrombo	-11.3002
▁entry	-11.3003
▁hydroxyacid	-11.3004
▁prickle	-11.3008
▁espin	-11.3009
▁hsp	-11.3009
loid	-11.3011
dysplasi	-11.3013
▁aldolase	-11.3015
▁AKNA	-11.3016
▁CLK	-11.3018
acetate	-11.302
▁Large	-11.3022
lian	-11.3023
▁jun	-11.3025
peroxid	-11.3033
orkhead	-11.3035
▁hap	-11.304
▁OB	-11.3044
▁FRG	-11.3046
uc	-11.3049
IH	-11.3051
▁od	-11.3057
raf	-11.3058
mp	-11.3061
FN	-11.3071
AD	-11.3075
▁lay	-11.308
umo	-11.3081
▁cholinephospho	-11.3086
▁mann	-11.3099
▁VA	-11.3122
KC	-11.3126
155	-11.3128
II	-11.3134
▁Maf	-11.3143
izz	-11.3147
decap	-11.3148
togen	-11.3149
ois	-11.3151
62	-11.3152
GF	-11.3158
plasmin	-11.317
lacta	-11.3196
▁PHF	-11.3212
por	-11.3229
▁HE	-11.3233
FR	-11.3237
▁somatom	-11.324
RS	-11.3248
▁dy	-11.3257
TRA	-11.3262
lony	-11.3264
▁4,6	-11.3285
FB	-11.3289
▁EC	-11.3293
corticotropi	-11.3298
ORM	-11.3302
▁583	-11.3313
▁oto	-11.3318
▁keto	-11.332
▁EM	-11.3321
methyladenosine	-11.3347
▁104	-11.3349
z	-11.3352
GT	-11.336
133	-11.3369
▁93	-11.3372
YF	-11.3388
nosine	-11.3401
▁ra	-11.3402
bli	-11.3423
oplakin	-11.3426
97	-11.3431
▁nu	-11.3439
220	-11.345
▁vis	-11.3451
suppress	-11.3462
▁WT	-11.3462
▁transloc	-11.3473
ephalin	-11.3485
xylosyl	-11.3486
break	-11.3495
autophagy	-11.3497
▁97	-11.3512
▁glycerophospho	-11.3516
prenyltransferase	-11.3516
structur	-11.3517
wa	-11.3517
226	-11.3523
XXV	-11.3524
▁comp	-11.3525
snRN	-11.354
▁bou	-11.3558
▁GAT	-11.3563
methylgluta	-11.3564
▁RP	-11.3604
▁lit	-11.3609
for	-11.3622
▁250	-11.3629
IMAP	-11.3635
▁202	-11.3639
▁SUR	-11.3645
▁nephri	-11.365
▁neu	-11.3656
▁cystin	-11.3659
▁ab	-11.3674
enin	-11.3685
16/	-11.371
▁AD	-11.3722
CST	-11.3725
urate	-11.3732
683	-11.3733
pero	-11.3761
ethylmalon	-11.3766
▁tubul	-11.3766
mitochondri	-11.377
▁rhodopsin	-11.377
▁SMARCC	-11.377
▁rescue	-11.377
▁nidogen	-11.377
▁speriolin	-11.377
▁tubby	-11.377
chymase	-11.377
▁pyroglutamyl	-11.377
▁readthrough	-11.377
▁Sgk	-11.377
antitrypsin	-11.3771
unitz	-11.3771
▁ARMC	-11.3771
▁AMME	-11.3771
resistan	-11.3772
urotensin	-11.3773
hydroxycholest	-11.3774
▁glycosylphosphatidylinositol	-11.3774
▁profilin	-11.3774
▁PML	-11.3775
▁immuno	-11.3775
amylase	-11.3778
▁seven	-11.3779
▁BACH	-11.3779
▁cold	-11.3782
▁gastrin	-11.3782
PPED	-11.3787
(5'-	-11.3788
phth	-11.379
▁Msh	-11.3793
-24	-11.3808
▁guanylyl	-11.3809
ag	-11.3812
▁AFG	-11.3815
170	-11.3815
oppo	-11.382
ICK	-11.3821
lene	-11.3822
▁beclin	-11.3826
▁BEX	-11.3839
shu	-11.3845
▁PRO	-11.3853
me	-11.3854
ICD	-11.3865
▁143	-11.3907
TFG	-11.3918
▁exten	-11.392
stit	-11.3922
kot	-11.3925
ri	-11.3925
arti	-11.3926
ylcholine	-11.3965
TT	-11.3975
▁cardio	-11.3979
▁pyrid	-11.3993
▁nex	-11.4008
site	-11.402
ferric	-11.4028
04	-11.4041
helica	-11.4046
▁ubiquino	-11.4053
▁CAS	-11.4055
05	-11.4057
▁nor	-11.4078
orin	-11.4104
itor	-11.4117
▁astro	-11.4154
▁ubiqui	-11.416
icent	-11.4163
yrin	-11.4171
-5(	-11.4185
▁267	-11.4185
▁MAK	-11.4193
ARV	-11.4195
▁lyso	-11.4196
h	-11.4201
▁HER	-11.4204
▁58	-11.4215
▁FRA	-11.4228
RCH	-11.4231
TH	-11.4242
CE	-11.4247
▁SN	-11.4248
part	-11.4254
▁lympho	-11.4255
94	-11.4255
▁179	-11.4263
▁gr	-11.4265
-30	-11.4275
rabin	-11.4284
AC	-11.4285
cal	-11.4302
▁al	-11.4302
orsin	-11.4302
▁156	-11.4316
▁flavin	-11.4327
sho	-11.4344
HMG	-11.4347
mitotic	-11.4353
dolichyl	-11.4353
chordin	-11.4356
LOC	-11.4358
ACE	-11.4374
smata	-11.4375
dig	-11.4392
▁ammoni	-11.4406
▁angiogen	-11.4416
alin	-11.4429
oc	-11.4443
▁LL	-11.4453
sine	-11.446
MF	-11.4475
OB	-11.4476
111	-11.4487
▁dT	-11.4507
RO	-11.4532
NI	-11.4547
▁neurogeni	-11.4548
70-	-11.4548
▁junct	-11.4558
sterase	-11.4563
dissociat	-11.4579
▁159	-11.458
choline	-11.4591
argo	-11.46
through	-11.4604
▁frame	-11.4604
▁sheath	-11.4604
▁antagonist	-11.4604
▁spliceosome	-11.4604
▁crypt	-11.4604
▁GNAS	-11.4604
10,	-11.4605
▁revers	-11.4605
▁uroporphyrinogen	-11.4605
▁hairy	-11.4605
HLH	-11.4607
sulpho	-11.4608
▁dismutase	-11.4608
▁methylmalon	-11.461
▁GON	-11.461
▁ortho	-11.461
▁keratinocyte	-11.4615
▁glucagon	-11.4619
▁cili	-11.4619
▁corni	-11.4619
ruv	-11.4621
elle	-11.4622
▁transacylase	-11.4624
satura	-11.4639
cyclo	-11.4644
chon	-11.4646
▁Pur	-11.465
▁DES	-11.4656
uster	-11.466
▁photoreceptor	-11.4662
TR	-11.4662
▁hemoglobin	-11.4663
63	-11.4668
2026	-11.4668
split	-11.4674
▁MAD	-11.4689
GAT	-11.4697
▁cerebell	-11.4701
idg	-11.4716
park	-11.4719
prote	-11.4722
▁pa	-11.4731
▁205	-11.4733
69	-11.4737
ultim	-11.4742
046	-11.475
▁epi	-11.4771
839	-11.4784
▁product	-11.4785
▁SV	-11.4792
▁oligopeptid	-11.4792
rate	-11.4793
XXII	-11.4793
tom	-11.4795
gent	-11.4804
el	-11.4806
▁density	-11.4819
ssembly	-11.4823
▁desaturase	-11.4839
chelat	-11.4843
▁229	-11.485
syn	-11.4851
▁fos	-11.4882
ake	-11.49
oside	-11.4905
king	-11.4915
▁ERF	-11.4916
234	-11.4926
▁carboxy	-11.4959
men	-11.4967
▁STAR	-11.4984
104	-11.4988
▁z	-11.4993
OP	-11.5017
dimethyl	-11.503
KE	-11.5035
8)-	-11.5041
xx	-11.5046
citra	-11.5052
eld	-11.509
▁639	-11.5105
▁ML	-11.5107
▁AL	-11.5112
92	-11.5123
iol	-11.5126
kine	-11.5131
▁NRD	-11.514
▁GP	-11.5174
▁ribos	-11.5181
pus	-11.5186
sci	-11.519
ju	-11.5191
▁phosphatidylethanolamine	-11.5197
lamin	-11.5215
RING	-11.5219
'-	-11.522
▁cr	-11.5227
deaminase	-11.5233
TK	-11.5234
160	-11.5237
tract	-11.525
spindle	-11.5252
cyclotransferase	-11.5253
sphingosine	-11.5262
li	-11.5262
desaturase	-11.5262
proline	-11.5265
dhesi	-11.5266
casein	-11.5269
ro	-11.5281
▁LA	-11.5283
207	-11.5286
oplasmin	-11.5296
ZP	-11.5297
notropic	-11.5299
RD	-11.531
▁cyto	-11.5314
inducer	-11.5322
131	-11.5338
yruva	-11.5342
ok	-11.5348
▁line	-11.535
ran	-11.5365
▁aut	-11.5395
BF	-11.54
▁PP	-11.5408
XXVII	-11.5428
▁aspart	-11.5448
low	-11.5468
appa	-11.5479
erate	-11.5487
ID	-11.5496
am	-11.5507
endocrine	-11.5513
▁RPUSD	-11.5513
▁hedgehog	-11.5513
▁hippoca	-11.5513
▁inturned	-11.5513
▁DGCR	-11.5513
▁GIPC	-11.5513
left	-11.5513
▁noelin	-11.5513
sephin	-11.5513
tilization	-11.5514
HDAC	-11.5514
uconate	-11.5515
▁proteolipid	-11.5515
▁DEAD	-11.5516
▁nucleoredoxin	-11.5517
▁decay	-11.552
▁HTRA	-11.5521
▁130	-11.5521
216	-11.5522
carboxym	-11.5525
ribosylarginine	-11.5528
▁read	-11.5534
egrin	-11.554
▁REC	-11.5542
▁EGR	-11.5547
▁PLD	-11.556
PAR	-11.5571
so	-11.5575
▁perio	-11.558
82	-11.5595
▁GLE	-11.5597
▁chymotrypsin	-11.56
sc	-11.5611
▁GUC	-11.5611
▁phosphatidylinosit	-11.5612
164	-11.5613
sphingolipid	-11.5618
▁128	-11.5624
▁GDPD	-11.5627
enosy	-11.563
▁amido	-11.5633
lica	-11.5641
ORC	-11.5644
▁vasculin	-11.5648
ophagy	-11.569
▁lu	-11.57
068	-11.5702
▁ERG	-11.5715
▁citra	-11.5727
REL	-11.5739
modulat	-11.5739
uter	-11.5744
▁dolichol	-11.5745
kar	-11.575
▁imp	-11.575
ANCL	-11.5769
▁matril	-11.5777
poten	-11.5781
▁fl	-11.5796
inin	-11.5799
▁function	-11.5803
itary	-11.5813
IT	-11.5818
SE	-11.5829
141	-11.5834
▁512	-11.5858
▁110	-11.5867
▁264	-11.5869
186	-11.5876
▁integr	-11.5904
▁132	-11.591
▁ar	-11.5918
methoxy	-11.592
/20	-11.5951
fusin	-11.5962
▁sarc	-11.597
▁thymo	-11.5974
uber	-11.5974
677	-11.5982
filin	-11.5997
▁nephr	-11.6001
ess	-11.6017
▁UN	-11.6025
endo	-11.6038
PS	-11.6039
tatin	-11.6042
nes	-11.6042
io	-11.6043
qua	-11.6048
▁TL	-11.6053
▁345	-11.6055
▁po	-11.6062
▁dimethyl	-11.6095
interleukin	-11.6112
▁831	-11.6132
EB	-11.616
LIM	-11.6179
▁Ran	-11.6189
lat	-11.619
3)-	-11.6194
▁528	-11.6199
209	-11.6201
interferon	-11.621
tal	-11.6214
56	-11.6215
▁extr	-11.622
cyst	-11.6224
▁MIS	-11.6236
oligodendrocyte	-11.6261
dolichol	-11.6262
endopeptidase	-11.6266
dent	-11.627
▁IA	-11.6271
lemm	-11.6287
▁HIN	-11.6291
▁ski	-11.6292
HIP	-11.6295
▁KR	-11.63
oglobin	-11.6338
AL	-11.6344
▁spi	-11.6354
▁glyc	-11.6354
kai	-11.6356
hol	-11.6363
icu	-11.637
ega	-11.6373
ermin	-11.6376
RI	-11.6376
-23	-11.6381
▁SL	-11.6383
▁fa	-11.6389
desmo	-11.64
▁oligo	-11.6421
pyruv	-11.6422
▁flagell	-11.643
▁motil	-11.6445
YS	-11.6446
glucono	-11.6448
▁stat	-11.6464
arrier	-11.6478
')	-11.6485
08	-11.65
glucosaminyl	-11.6507
yr	-11.6507
▁vacuol	-11.651
▁oxygen	-11.651
▁amidoxime	-11.6513
▁esophag	-11.6513
▁tapasin	-11.6513
▁NPRL	-11.6513
ylacetoaceta	-11.6513
▁spartin	-11.6513
▁cingulin	-11.6513
▁SKI	-11.6514
glucosaminyltransferase	-11.6517
▁dendri	-11.6517
(4)-(	-11.6518
▁cortexin	-11.6528
influen	-11.6529
▁salt	-11.6529
▁RIO	-11.6536
road	-11.6539
▁BUD	-11.6542
▁255	-11.6542
▁OX	-11.6545
▁105	-11.6548
▁GEM	-11.6552
▁IRE	-11.6554
▁adv	-11.6558
rot	-11.6559
▁RBM	-11.6564
olipin	-11.6574
▁colo	-11.6577
1549	-11.6578
▁SMU	-11.6591
▁233	-11.6592
▁diphosphatase	-11.6592
sterone	-11.6599
▁transformation	-11.6601
▁191	-11.6605
▁hh	-11.6612
▁61	-11.6617
liberin	-11.6619
cons	-11.6625
rn	-11.6634
iant	-11.664
auto	-11.6642
phag	-11.665
Bi	-11.6651
ige	-11.6653
150	-11.6655
MEF	-11.6657
hydrogenase	-11.6658
sus	-11.6689
itron	-11.6706
▁succinyl	-11.6707
acetylase	-11.6709
hydro	-11.6715
RIG	-11.6716
▁bis	-11.6718
ook	-11.6728
750	-11.6735
▁TME	-11.676
afa	-11.6761
136	-11.6794
hydroxymethyl	-11.6795
▁235	-11.6797
ule	-11.6803
▁NAC	-11.6804
▁io	-11.6808
▁144	-11.681
▁op	-11.6834
ALR	-11.6839
tu	-11.6848
▁com	-11.6849
▁TI	-11.6853
▁le	-11.6858
▁fet	-11.6861
methylated	-11.6872
cis	-11.6885
5'-	-11.6891
nonspecific	-11.69
151	-11.6915
138	-11.6915
▁MK	-11.6917
AEA	-11.692
ocystin	-11.6926
▁541	-11.6953
▁NS	-11.6955
▁fol	-11.6965
PV	-11.6972
▁11-	-11.6975
lk	-11.698
▁UL	-11.6985
▁488	-11.6991
helic	-11.6995
(4)	-11.7006
EV	-11.7024
▁ED	-11.7027
cor	-11.7029
RICH	-11.7034
red	-11.7034
▁ST	-11.7055
phobi	-11.7106
▁DE	-11.7109
▁orexi	-11.7109
▁phosphoryla	-11.7113
▁gg	-11.7115
▁glutamyl	-11.7117
▁troph	-11.7124
▁Hb	-11.7131
▁deac	-11.7131
ur	-11.7145
▁Ma	-11.7146
ct	-11.715
sodium	-11.7153
▁263	-11.7163
▁IS	-11.72
▁MO	-11.7204
▁24-	-11.7213
iesterase	-11.7244
esis	-11.7274
ric	-11.7282
ysin	-11.7291
▁dihydro	-11.7295
▁PG	-11.7301
▁PK	-11.7302
psin	-11.7304
▁pl	-11.7306
icular	-11.7307
ding	-11.7312
nic	-11.7359
sequence	-11.7363
heart	-11.7365
defect	-11.7373
▁ju	-11.7374
speckle	-11.7376
NX	-11.7376
enolase	-11.738
MAPK	-11.7383
aspartyl	-11.7385
Sec	-11.7393
UTP	-11.7399
RAF	-11.74
ane	-11.7404
anti	-11.7406
Ib	-11.7413
▁leu	-11.7419
erg	-11.7427
▁ag	-11.743
und	-11.7475
phosphogluco	-11.7475
10537	-11.7512
vo	-11.7531
▁vitr	-11.7541
▁FANC	-11.7545
LS	-11.7547
pic	-11.756
▁571	-11.7572
▁230	-11.7582
▁gly	-11.7595
▁desm	-11.7596
branch	-11.7598
igh	-11.7614
▁biosynthe	-11.7623
dihydroxyacetone	-11.7624
ureidopropionase	-11.7624
▁gametogenetin	-11.7624
▁retardation	-11.7624
▁occludin	-11.7624
▁otogelin	-11.7624
▁transketolase	-11.7624
▁sialomucin	-11.7624
▁ALKBH	-11.7624
▁SYDE	-11.7624
▁Aralar	-11.7624
▁TPTE	-11.7624
▁phosducin	-11.7625
▁thiosulfate	-11.7625
▁entero	-11.7625
▁SOGA	-11.7625
▁melanocyte	-11.7626
aminoadipate	-11.7626
▁ZFPM	-11.7627
▁rootletin	-11.7629
▁kaput	-11.7631
neutr	-11.7633
itol	-11.7633
▁acrosom	-11.7634
▁chemota	-11.7635
raft	-11.7635
▁pump	-11.7636
Snap	-11.7637
▁varia	-11.7637
aza	-11.7638
homocysteine	-11.7639
▁remodeling	-11.7658
▁FRK	-11.766
▁DPF	-11.7669
ibrin	-11.7671
agonist	-11.7673
▁TEX	-11.7675
ARB	-11.7678
dihydroxy	-11.7679
▁phosphotr	-11.768
▁81	-11.7682
0232	-11.7688
▁trimethyl	-11.769
▁ob	-11.7691
pt	-11.7699
▁BUB	-11.77
▁deamina	-11.77
asparaginase	-11.7703
▁trime	-11.7719
ss	-11.7726
(7)	-11.7726
▁dimeri	-11.7731
down	-11.7732
▁silenc	-11.7733
XV	-11.7742
creas	-11.7747
▁TRIML	-11.7784
▁infl	-11.779
tex	-11.7791
107984	-11.7795
gment	-11.78
▁LO	-11.7806
vi	-11.7816
▁570	-11.7821
MRP	-11.7827
LDL	-11.783
GI	-11.7837
phy	-11.7848
ea	-11.7851
upt	-11.7861
▁glycer	-11.7875
▁PU	-11.7878
▁236	-11.788
iphilin	-11.7894
kem	-11.7898
▁phosph	-11.7903
▁oligodendrocyte	-11.7913
▁ZI	-11.7919
▁dol	-11.7926
64	-11.7938
444	-11.7942
uin	-11.7944
almi	-11.7953
UP	-11.7956
gl	-11.7974
dym	-11.7989
▁lon	-11.7993
erator	-11.7999
mannos	-11.8014
▁adeno	-11.8017
▁bo	-11.8026
▁TO	-11.8032
245	-11.8046
ked	-11.8049
▁221	-11.8053
▁ID	-11.8077
IS	-11.8085
07	-11.81
EBP	-11.8107
▁arginin	-11.8137
-25	-11.8153
536	-11.8153
KB	-11.8182
▁xylos	-11.8182
tch	-11.8187
▁pur	-11.8203
ines	-11.8213
compa	-11.8215
ipped	-11.8216
▁betaine	-11.8223
ym	-11.8226
mental	-11.8238
ual	-11.8244
icarbo	-11.8249
▁ac	-11.826
RAG	-11.8262
adapt	-11.8263
▁lacto	-11.8277
ankyrin	-11.8283
▁Tc	-11.8312
▁path	-11.8326
kali	-11.8329
▁fibrosi	-11.8333
MR	-11.8341
MRE	-11.8358
luc	-11.8367
reat	-11.8367
blastoma	-11.838
tite	-11.8391
ell	-11.8392
▁gli	-11.8393
▁prenyl	-11.8419
TN	-11.8425
lity	-11.8431
▁177	-11.8434
▁20-	-11.844
ber	-11.8452
▁ta	-11.8459
manno	-11.847
▁lis	-11.8479
loo	-11.8489
MBP	-11.8508
SLU	-11.8532
▁134	-11.8542
epsilon	-11.8565
lemma	-11.8583
ia	-11.86
▁ferri	-11.8615
retinol	-11.8619
parathy	-11.8623
Maf	-11.8625
stem	-11.8626
185	-11.8636
GR	-11.8656
ract	-11.867
707	-11.8673
galactose	-11.868
MAR	-11.8682
▁hom	-11.8684
ote	-11.869
omal	-11.8691
IG	-11.8713
▁coa	-11.8714
SIN	-11.8729
glycosyl	-11.8736
rRNA	-11.8739
xylos	-11.8763
adaptin	-11.8764
ZI	-11.88
asparagine	-11.8809
egu	-11.881
▁retrovir	-11.8812
▁TS	-11.8818
LIN	-11.8827
023	-11.8829
INS	-11.8832
cu	-11.8842
▁prion	-11.8851
▁188	-11.8859
ylethanolamine	-11.8861
▁dihydropyrimidin	-11.8861
alian	-11.8867
itz	-11.887
adrenodoxin	-11.8874
arachidon	-11.8874
▁AHNAK	-11.8874
▁CEBPZOS	-11.8874
▁envoplakin	-11.8874
▁galanin	-11.8874
▁Notch	-11.8874
▁STPG	-11.8874
▁lutropin	-11.8874
▁respira	-11.8874
▁LMTK	-11.8874
▁transgelin	-11.8874
▁sororin	-11.8874
▁vasopressin	-11.8875
▁ZNRF	-11.8875
thrombin	-11.8876
▁numb	-11.8877
▁immunity	-11.8878
benzo	-11.888
▁NEURL	-11.888
3898	-11.8882
▁BNIP	-11.8884
collin	-11.8884
▁neurotensin	-11.8884
▁immun	-11.8886
CFC	-11.8893
▁amelo	-11.8895
YN	-11.8896
▁Yes	-11.8904
▁twin	-11.8914
▁membra	-11.8915
shift	-11.8923
isobutyr	-11.895
▁554	-11.8967
▁triad	-11.8972
▁defensin	-11.8972
acki	-11.8972
arylacet	-11.8976
▁BRD	-11.8977
itate	-11.8982
ubiquitin	-11.8983
atten	-11.8984
hydroxyl	-11.899
SCP	-11.8992
rim	-11.9001
adhesi	-11.9009
forin	-11.9011
TA	-11.9012
termin	-11.902
KT	-11.9028
▁modula	-11.9034
▁inhibi	-11.904
CMT	-11.9052
taining	-11.9055
mide	-11.9062
aker	-11.9078
▁195	-11.9081
▁galactose	-11.9098
cyclin	-11.9101
▁16-1	-11.9103
▁citr	-11.9111
219	-11.9117
▁EME	-11.9152
▁PAR	-11.9176
tg	-11.9178
LX	-11.9179
mine	-11.9185
IB	-11.9189
▁methylc	-11.9199
▁ferro	-11.9211
▁fe	-11.9211
esin	-11.922
ional	-11.9233
pilin	-11.9236
▁snRN	-11.9244
PAB	-11.9248
omb	-11.9258
▁galactoside	-11.9261
▁102	-11.9262
eri	-11.9272
fa	-11.9278
ADD	-11.9295
▁152	-11.93
▁auto	-11.9307
porter	-11.9314
▁79	-11.9318
▁516	-11.9319
▁trio	-11.9343
genera	-11.9344
▁jj	-11.9351
221	-11.9366
trate	-11.9371
enol	-11.9372
onj	-11.9373
076	-11.9386
▁gre	-11.9389
▁101	-11.9409
imethylamino	-11.9426
▁862	-11.9428
17-	-11.9434
ED	-11.9434
lipoamide	-11.9456
▁chrom	-11.9461
158	-11.95
▁479	-11.9502
▁deform	-11.9511
ARP	-11.9522
▁Ral	-11.9538
apen	-11.9565
CF	-11.957
trace	-11.9575
▁117	-11.9596
▁flo	-11.9599
YK	-11.9608
▁POL	-11.9612
pterin	-11.9616
oper	-11.9672
paran	-11.9682
uga	-11.969
some	-11.9693
secret	-11.9702
▁noc	-11.9702
▁translocat	-11.9707
GARP	-11.9725
▁testi	-11.9734
oxidase	-11.9737
▁stor	-11.9739
▁regu	-11.977
▁transi	-11.977
▁app	-11.9822
▁GR	-11.9825
exchange	-11.9827
▁ses	-11.9833
▁VII	-11.9844
▁kk	-11.9849
▁bb	-11.9852
zer	-11.9855
▁lipoyl	-11.9864
ency	-11.9875
lad	-11.9875
▁synde	-11.9882
▁diphosph	-11.9882
▁malon	-11.9935
penten	-11.9938
▁15-	-11.9945
cip	-11.9959
▁lar	-11.9961
aa	-11.997
gona	-11.9971
carboxylase	-11.9978
ZIP	-12.0015
URP	-12.004
opioid	-12.0044
▁isofo	-12.0045
roton	-12.0056
▁ZF	-12.0057
Nup	-12.0061
rotein	-12.0064
▁glutam	-12.0077
bp	-12.008
▁ena	-12.01
▁thy	-12.0107
infl	-12.0109
ith	-12.0112
▁lun	-12.0115
PW	-12.0119
▁af	-12.013
sher	-12.0138
▁somat	-12.016
anBP	-12.0172
▁174	-12.0183
236	-12.0187
fibrillar	-12.0196
841	-12.0206
SAM	-12.0206
-33	-12.0219
DH	-12.023
ATF	-12.0239
zo	-12.0239
her	-12.0256
uve	-12.0265
rt	-12.0266
▁LR	-12.0268
▁fan	-12.027
GC	-12.0279
▁fasci	-12.0291
chol	-12.0295
▁nas	-12.0297
mit	-12.0298
synthesi	-12.0302
▁Rieske	-12.0302
▁allantoicase	-12.0302
▁cocaine	-12.0302
▁melatonin	-12.0302
▁pentraxin	-12.0302
▁prohibitin	-12.0302
▁prokineticin	-12.0302
▁sortilin	-12.0302
lactamase	-12.0302
▁oxytocin	-12.0302
▁snoRNA	-12.0302
▁TYRO	-12.0303
▁substance	-12.0303
myrist	-12.0303
▁SIAH	-12.0303
starch	-12.0303
▁OTX	-12.0303
palmitoleoyl	-12.0303
▁progressi	-12.0303
▁myeloma	-12.0303
presen	-12.0303
▁HKI	-12.0304
▁PRMT	-12.0304
ybut	-12.0304
▁odontogen	-12.0305
glycin	-12.0305
▁mucosa	-12.0305
▁Src	-12.0305
▁geminin	-12.0306
ification	-12.0306
▁ZFP	-12.0306
(34)-	-12.0306
▁ZXD	-12.0306
rogenase	-12.0306
▁Rhes	-12.0307
▁advillin	-12.0307
▁chemotaxin	-12.0307
0040	-12.0307
bby	-12.0308
▁glioma	-12.0308
omycin	-12.0309
▁neuritin	-12.031
rea	-12.0311
▁Tob	-12.0312
secretogranin	-12.0312
onucl	-12.0313
omeobox	-12.0316
▁NFAT	-12.0316
▁carboxykinase	-12.0317
▁decarboxylating	-12.033
que	-12.0338
▁LAG	-12.034
▁dehy	-12.0343
▁MB	-12.0346
▁NKAP	-12.0348
▁wnt	-12.0348
glucosaminid	-12.0353
▁retro	-12.036
sulfide	-12.0369
▁protamine	-12.0378
415	-12.0378
▁POP	-12.038
▁VI	-12.0395
KBP	-12.0398
▁amph	-12.0399
▁peroxidasin	-12.0402
▁ADH	-12.0415
MEL	-12.0419
▁SRC	-12.042
adherin	-12.0422
▁CDKN	-12.0422
▁por	-12.044
ized	-12.0441
tax	-12.0454
dopla	-12.0455
▁90-	-12.0455
▁prepro	-12.0459
sortin	-12.0463
lume	-12.0466
▁TAR	-12.0478
van	-12.0488
fici	-12.0492
▁EVI	-12.0494
▁tar	-12.0501
zing	-12.0513
delin	-12.053
mer	-12.0535
▁RR	-12.0551
hyp	-12.0551
▁3,4	-12.0554
▁BH	-12.0557
orpho	-12.057
pper	-12.0592
▁y	-12.0598
MTOR	-12.0629
▁687	-12.0643
▁AB	-12.0645
PEG	-12.0659
114	-12.0667
▁Ki	-12.0683
ped	-12.0696
▁myotoni	-12.07
chan	-12.0705
rginine	-12.0721
cholester	-12.0736
004	-12.0744
py	-12.075
▁sho	-12.0751
dal	-12.0779
VIII	-12.0784
▁cu	-12.0785
449	-12.0814
mo	-12.0819
lon	-12.0821
SP	-12.0826
phos	-12.0831
Cut	-12.0858
▁zw	-12.0859
▁folli	-12.0865
▁737	-12.087
anhydr	-12.0902
▁EN	-12.0925
▁HC	-12.0931
▁seleni	-12.0944
▁SD	-12.0944
KM	-12.0956
▁lysophosphatidyl	-12.096
▁183	-12.0971
oquin	-12.0975
▁micros	-12.0977
shi	-12.0991
ua	-12.1021
lob	-12.1023
▁nica	-12.1034
▁tw	-12.1048
eat	-12.1051
man	-12.107
bi	-12.1097
pent	-12.113
9)	-12.113
STO	-12.1135
fer	-12.1138
181	-12.1138
pher	-12.1161
▁149	-12.1168
chy	-12.1174
▁MT	-12.1179
39-	-12.1184
glutami	-12.1185
phosphoglyc	-12.1192
▁Spi	-12.12
pas	-12.1226
okin	-12.1231
bisphosph	-12.1258
otic	-12.1295
ik	-12.1332
▁cod	-12.1336
ema	-12.1336
▁dd	-12.1351
YR	-12.1352
▁187	-12.1365
ca	-12.1381
tit	-12.1389
otin	-12.1413
hosphodiester	-12.1428
98-	-12.145
▁cate	-12.1463
icle	-12.1466
trie	-12.1476
▁prosa	-12.1476
fucos	-12.1495
trypta	-12.1527
ATP	-12.1529
IST	-12.1558
group	-12.1568
lysophosphatid	-12.1586
lu	-12.16
17,	-12.1609
okinase	-12.1624
rtin	-12.1648
▁449	-12.165
▁fibrillar	-12.1657
▁asc	-12.1663
hyro	-12.1667
▁ES	-12.1668
body	-12.1675
▁che	-12.17
▁LT	-12.1703
SMG	-12.1711
annexin	-12.1713
pri	-12.1715
relaxin	-12.1716
copper	-12.1717
tacti	-12.1729
neral	-12.1739
oplasti	-12.1747
NKG	-12.1752
▁intr	-12.1763
▁galacto	-12.1764
▁TF	-12.1781
XII	-12.1796
▁development	-12.1804
mb	-12.181
neural	-12.1821
otulin	-12.1827
chroma	-12.1828
680	-12.1841
erul	-12.1847
▁NHL	-12.1852
▁granul	-12.1867
aryl	-12.1871
nitri	-12.1873
▁nexi	-12.1897
107985	-12.1904
cular	-12.191
betaine	-12.1936
▁kynurenin	-12.194
▁cortex	-12.1943
EMO	-12.1944
phosphoser	-12.1944
prop	-12.1956
modul	-12.1962
▁threonylcarbamoyl	-12.1964
▁PLAG	-12.1966
KLR	-12.1966
▁adrenocortic	-12.1969
▁Mohawk	-12.1969
▁haptoglobin	-12.1969
▁ripply	-12.1969
▁OZF	-12.1969
▁invasion	-12.1969
▁midasin	-12.1969
▁ESCO	-12.1969
hydroxyisobutyr	-12.1969
▁Daple	-12.1969
▁TXK	-12.1969
▁boreali	-12.1969
▁SMURF	-12.197
mesencephal	-12.197
▁OTOP	-12.197
▁tricho	-12.1971
▁osteop	-12.1971
▁resistin	-12.1971
▁SBK	-12.1971
nine	-12.1971
▁THEM	-12.1972
hydrate	-12.1972
▁gameto	-12.1972
▁qq	-12.1973
▁ZSWIM	-12.1974
▁salva	-12.1974
▁thia	-12.1975
▁VCP	-12.1976
amyl	-12.1976
Arg	-12.1978
osidase	-12.1979
▁SRPX	-12.198
yrosine	-12.1984
ochrome	-12.1987
NYN	-12.1988
▁inver	-12.1989
MUC	-12.199
▁TSR	-12.1993
▁SUZ	-12.1997
butyro	-12.1998
▁Dsc	-12.2005
▁glutami	-12.2006
OLA	-12.2007
▁WFDC	-12.2007
ze	-12.2014
▁ha	-12.2017
derm	-12.2022
▁MNT	-12.2022
carb	-12.2023
▁astrocyt	-12.2025
▁ventr	-12.2026
ically	-12.2027
▁lei	-12.2028
▁PNK	-12.2032
acce	-12.2033
rens	-12.2042
olf	-12.2052
eller	-12.2061
▁PSF	-12.2073
▁5,	-12.2075
▁RPAC	-12.2075
144	-12.2082
ike	-12.2083
YM	-12.2085
▁dehydro	-12.2097
112	-12.2107
▁800	-12.2109
lethal	-12.211
▁PRAC	-12.2135
ves	-12.214
olog	-12.2157
DE	-12.216
▁790	-12.2166
BED	-12.2179
▁centriole	-12.2194
car	-12.2195
la	-12.2197
▁SRP	-12.22
▁WR	-12.2203
▁gastr	-12.2205
za	-12.2216
▁9-	-12.2219
oxoac	-12.2221
▁sup	-12.2228
appe	-12.2229
micro	-12.223
ortin	-12.2232
▁fil	-12.2289
▁GAD	-12.229
nv	-12.2293
lano	-12.2295
iso	-12.2296
(0	-12.2298
LRC	-12.2312
genin	-12.2329
olysin	-12.2332
-21	-12.2362
PPR	-12.2366
▁MIX	-12.2368
yla	-12.238
▁heart	-12.2386
EAR	-12.2394
▁phen	-12.2394
054	-12.2409
CP	-12.2418
affin	-12.2454
▁SRE	-12.2471
uclein	-12.2479
ez	-12.2504
▁sor	-12.2504
▁fla	-12.251
▁sac	-12.2517
lerat	-12.2518
sm	-12.2543
coilin	-12.2544
ohesin	-12.2553
cardi	-12.2559
▁multiv	-12.2563
CU	-12.2564
inge	-12.2568
ylglycerol	-12.2577
ocyst	-12.2583
▁abs	-12.2585
▁DL	-12.2589
BL	-12.2593
▁785	-12.26
▁myot	-12.263
pros	-12.2634
▁exp	-12.2641
PAL	-12.2656
))-	-12.2674
CT	-12.2675
noci	-12.2703
▁melan	-12.2712
▁MR	-12.2726
SK	-12.2756
451	-12.2757
▁706	-12.2765
▁BR	-12.2772
▁658	-12.2793
▁phosphoglyc	-12.2809
▁710	-12.2825
▁15,	-12.2833
21-	-12.2863
13,	-12.2867
phor	-12.2867
▁oo	-12.2873
NG	-12.2879
▁592	-12.2882
PCP	-12.2884
▁243	-12.2888
▁home	-12.2892
ph	-12.2893
purin	-12.2896
anch	-12.2898
liver	-12.291
596	-12.2913
astin	-12.2914
ree	-12.2939
SRP	-12.294
▁denti	-12.2941
mixe	-12.2944
OD	-12.295
apto	-12.297
▁124	-12.2998
atri	-12.3006
▁337	-12.3018
thy	-12.3019
(1	-12.304
aja	-12.3048
01	-12.306
athi	-12.306
(4)-	-12.3065
join	-12.3075
▁selen	-12.3089
▁95	-12.3099
▁calcy	-12.31
▁lipoamid	-12.3113
tte	-12.3114
▁RRN	-12.3124
glucosyl	-12.3143
▁homo	-12.3148
▁peroxid	-12.3151
His	-12.3158
61	-12.3162
cerebr	-12.3171
PD	-12.3178
raba	-12.3179
pie	-12.3189
▁705	-12.3199
peptidyl	-12.3201
MP	-12.3204
artin	-12.321
▁tropom	-12.3212
amma	-12.322
sozyme	-12.3224
jo	-12.3247
abasi	-12.325
aspar	-12.3256
XX	-12.3276
ru	-12.3322
resi	-12.3352
oxygenase	-12.3379
2/3	-12.338
regulator	-12.3387
EAT	-12.3387
▁SPA	-12.3393
▁odo	-12.3399
RL	-12.3411
▁du	-12.3414
sial	-12.3415
osyl	-12.3423
RY	-12.3431
oxylate	-12.3437
157	-12.3444
▁245	-12.3444
▁SER	-12.3456
ath	-12.3468
▁trypt	-12.3474
CM	-12.3492
oss	-12.3495
sor	-12.351
lens	-12.351
gic	-12.3514
▁STA	-12.3518
▁ins	-12.3522
hysin	-12.3523
element	-12.3525
▁vir	-12.353
▁perox	-12.3532
▁spa	-12.3539
▁210	-12.3555
yosin	-12.3558
reduc	-12.3562
▁NE	-12.3567
MA	-12.3578
RA	-12.3606
lp	-12.3608
iti	-12.3613
complement	-12.3623
determin	-12.3624
▁215	-12.3627
ritic	-12.3633
row	-12.3633
174	-12.365
ult	-12.3659
TRP	-12.3661
019	-12.3699
filament	-12.3707
NADPH	-12.3717
arat	-12.3748
ci	-12.3748
tail	-12.3767
odelin	-12.378
apri	-12.3795
CCHC	-12.3798
▁or	-12.3804
▁TR	-12.3812
▁fascin	-12.3859
152	-12.3859
0,	-12.3862
DO	-12.3864
aft	-12.3864
',	-12.3878
▁tes	-12.3879
CK	-12.3889
otonin	-12.3905
-)	-12.3909
XXVI	-12.3926
IIB	-12.3927
ie	-12.3928
op	-12.3929
▁CTC	-12.3944
▁neurex	-12.3946
▁354	-12.3954
▁intermedia	-12.3957
aminoadip	-12.3965
▁pseudo	-12.3965
pair	-12.3967
encephalon	-12.3968
ocorticoid	-12.3969
Gppp	-12.3969
obutanoate	-12.3969
▁LRATD	-12.3969
▁ZRANB	-12.3969
▁machinery	-12.3969
▁immediate	-12.3969
▁corticosteroid	-12.3969
▁Rheb	-12.3969
carboxylating	-12.397
▁INKA	-12.397
105369	-12.397
▁MARCO	-12.397
▁moesin	-12.397
▁ZBED	-12.397
▁separin	-12.3971
▁securin	-12.3971
101060	-12.3971
MICA	-12.3972
volu	-12.3972
▁PTEN	-12.3972
▁SPEM	-12.3973
▁podoc	-12.3973
chitobi	-12.3974
▁VDRA	-12.3975
ctivator	-12.3977
PHO	-12.3982
▁HMX	-12.3983
calbin	-12.3986
PAT	-12.3989
16351	-12.3989
▁respon	-12.3994
ERF	-12.3995
▁swi	-12.3996
▁optic	-12.3997
▁GSK	-12.3999
▁ISO	-12.3999
▁dec	-12.4
▁neuroblast	-12.4002
az	-12.4004
▁indole	-12.4004
▁PMP	-12.4004
galactosaminid	-12.4007
▁ectoenzyme	-12.401
▁Clp	-12.4014
ccin	-12.4015
▁EMX	-12.4015
pindl	-12.4016
▁222	-12.4016
▁calmin	-12.4018
ylation	-12.4024
▁xylosylkinase	-12.4026
184	-12.4029
▁da	-12.403
kle	-12.4031
▁PEA	-12.4033
▁hepsin	-12.4036
▁SCO	-12.4037
THE	-12.404
▁ENL	-12.4041
▁Tec	-12.4042
▁eph	-12.4044
▁Rit	-12.4048
▁pho	-12.4067
ipin	-12.4069
sequest	-12.4069
22-	-12.4071
487	-12.4076
▁retinoid	-12.4078
▁lat	-12.4084
▁HEP	-12.409
oll	-12.409
SYN	-12.4096
oregulin	-12.4124
▁126	-12.4125
▁spermidine	-12.4129
ushi	-12.4136
194	-12.4138
pica	-12.415
merin	-12.4156
▁MAL	-12.4162
DR	-12.4167
TAT	-12.4175
▁otulin	-12.4177
ima	-12.4184
iliz	-12.4192
▁stra	-12.4197
mmun	-12.4212
▁879	-12.4217
sert	-12.4249
he	-12.4251
▁23-	-12.4252
EAK	-12.4253
▁spac	-12.4289
204	-12.4295
licat	-12.4307
▁Aven	-12.4318
diol	-12.4325
▁jag	-12.4328
GAL	-12.4328
LYR	-12.434
NB	-12.4344
▁rel	-12.4355
thmin	-12.4358
yphos	-12.4363
cation	-12.4368
▁73	-12.4376
LI	-12.4377
pi	-12.4384
240	-12.4406
gonado	-12.4416
coli	-12.4421
553	-12.4443
▁25-	-12.4452
Ic	-12.4456
ba	-12.4472
▁7,	-12.4483
▁glycos	-12.4491
▁uni	-12.4492
ACH	-12.4497
▁SM	-12.4498
467	-12.4507
18-	-12.4515
adenyl	-12.4521
▁MG	-12.4522
hw	-12.453
▁polypren	-12.4585
pal	-12.4596
EIF	-12.4603
▁FK	-12.4606
▁cyclotransferase	-12.4617
art	-12.4618
chae	-12.4618
afla	-12.4625
053	-12.4641
ACT	-12.4653
▁212	-12.4662
(2	-12.4664
sterin	-12.4666
RTA	-12.4669
rdin	-12.4694
gulat	-12.4705
▁gliom	-12.4707
▁mag	-12.4715
isomer	-12.4728
CI	-12.4742
▁146	-12.4751
ization	-12.476
205	-12.479
▁pleiotrop	-12.4797
tomer	-12.4856
FF	-12.4862
nase	-12.4879
▁bromo	-12.4896
▁652	-12.4915
(20	-12.4926
▁IIA	-12.4936
Vc	-12.4947
▁mali	-12.4965
GA	-12.498
▁am	-12.4992
▁646	-12.5
deoxynucleotid	-12.5008
bol	-12.5009
▁168	-12.5033
10-	-12.5059
▁mar	-12.5072
tropin	-12.5085
chole	-12.5093
zin	-12.5097
sel	-12.5104
cot	-12.5105
506	-12.5128
OC	-12.5144
grin	-12.5152
ge	-12.5171
-22	-12.5174
licin	-12.518
ASP	-12.5197
▁tre	-12.5232
,2-	-12.5238
▁triphosph	-12.5247
AV	-12.5258
▁cardi	-12.5261
1053795	-12.5264
del	-12.5277
3-3	-12.5278
demethyl	-12.5282
ker	-12.5291
izing	-12.5291
ELT	-12.5303
▁transami	-12.5319
moter	-12.5324
neuramin	-12.5327
112268	-12.5335
neuro	-12.5375
los	-12.5402
212	-12.5403
ha	-12.5407
glycer	-12.5484
PH	-12.5484
inogen	-12.5501
fe	-12.5522
8,	-12.5545
leu	-12.5546
inder	-12.5559
stac	-12.5572
▁regulati	-12.5594
rine	-12.567
lmo	-12.5695
nuclease	-12.5696
▁mus	-12.5702
ermi	-12.5712
▁EB	-12.5717
ABI	-12.5717
oacyl	-12.572
anin	-12.5744
INL	-12.5745
334	-12.5747
geni	-12.5759
▁nucleotidyl	-12.5813
MUS	-12.5828
No	-12.5833
66	-12.5838
carboxyl	-12.5843
tac	-12.5854
iacylglycerol	-12.5872
ribonucleotid	-12.5875
▁hy	-12.5909
mia	-12.5912
eutr	-12.5943
▁resi	-12.5973
Gl	-12.5974
▁NM	-12.5977
OL	-12.5983
pul	-12.5988
MAT	-12.5995
rpor	-12.5998
coph	-12.6002
precursor	-12.6014
LE	-12.6024
484	-12.6031
vit	-12.6038
omerase	-12.6052
odon	-12.6073
cid	-12.6073
1,3-	-12.6085
opio	-12.6096
surfac	-12.61
GMP	-12.6105
tw	-12.611
SM	-12.6126
290	-12.6141
▁SAR	-12.6142
EO	-12.6147
▁761	-12.6155
nicotinamide	-12.6183
dehydratase	-12.6184
cystein	-12.6204
thioester	-12.621
silenc	-12.6211
melanocortin	-12.6212
chymotrypsin	-12.6215
cort	-12.6218
phreni	-12.6219
retinal	-12.622
▁527	-12.6223
▁ago	-12.6226
ucosidase	-12.6236
▁zon	-12.6262
ELL	-12.6265
aminoacyl	-12.6271
mesoderm	-12.6291
core	-12.63
lysophosphatidyl	-12.6315
10272	-12.6332
ribos	-12.635
colo	-12.6354
tance	-12.6366
▁Nu	-12.639
▁exchang	-12.6392
omplex	-12.6397
▁methylthiorib	-12.6417
hydr	-12.6419
go	-12.6422
anco	-12.6424
nduc	-12.6425
▁chaperon	-12.6436
inte	-12.6442
▁bro	-12.6451
▁epitheli	-12.6454
▁opti	-12.6455
168	-12.6462
adillo	-12.6469
Lindau	-12.6469
00801)	-12.6469
glutamylaminecyclotransferase	-12.6469
▁aspartoacylase	-12.6469
▁gonadotropin	-12.6469
▁phakinin	-12.6469
1122678	-12.6469
▁LRTOMT	-12.6469
▁NANOG	-12.6469
▁SOWAH	-12.6469
▁hBACH	-12.6469
▁meteorin	-12.6469
▁thyroxine	-12.6469
▁switch	-12.6469
▁MSANTD	-12.6469
▁cornifelin	-12.6469
▁pendrin	-12.6469
phosphopantethein	-12.6469
▁LACTB	-12.6469
▁EGLN	-12.6469
▁twist	-12.647
▁periplakin	-12.647
▁ameloblast	-12.6471
▁chondroadherin	-12.6471
carbamoyl	-12.6471
▁MAGIX	-12.6471
centractin	-12.6471
▁LBR	-12.6473
▁equatori	-12.6473
▁ferritin	-12.6473
▁201	-12.6476
Myc	-12.6476
▁Rlf	-12.6478
▁paladin	-12.6481
▁VEGF	-12.6482
102724	-12.6484
PCD	-12.6485
▁TRMT	-12.6486
▁CREG	-12.6487
rhod	-12.6491
▁MCU	-12.6491
▁MYLIP	-12.6492
uti	-12.6496
alus	-12.6498
101929	-12.6508
▁NIM	-12.6511
▁MEI	-12.6513
▁talin	-12.6515
1079867	-12.6522
▁fibrillarin	-12.6527
Rel	-12.6527
fork	-12.6532
▁process	-12.6533
▁RPL	-12.6538
TPase	-12.6542
PA	-12.6543
▁Pr	-12.6555
▁cop	-12.6559
lonate	-12.6562
▁chole	-12.6577
gradi	-12.6585
▁GOL	-12.6586
▁219	-12.6589
PB	-12.6592
▁PPP	-12.6594
retino	-12.6601
mucin	-12.6601
stimulati	-12.6605
▁pancreas	-12.661
ns	-12.6621
tz	-12.6632
027	-12.6636
hape	-12.664
NIP	-12.6649
physin	-12.6653
versi	-12.6655
▁nove	-12.6657
105376	-12.6667
▁ff	-12.6696
centr	-12.6714
1079872	-12.672
▁thioester	-12.6721
▁mae	-12.6728
MN	-12.6732
▁LMB	-12.6744
▁13-	-12.6768
1079871	-12.6772
▁arte	-12.6777
ovi	-12.6778
ntrin	-12.6784
gly	-12.6786
▁WWC	-12.6798
onic	-12.6813
uator	-12.6816
steryl	-12.6818
▁nep	-12.6821
▁methylthio	-12.6821
ssion	-12.6826
▁follic	-12.6836
/8	-12.6842
LT	-12.6846
rp	-12.6878
▁NDC	-12.6891
1122680	-12.6899
pp	-12.691
▁aa	-12.6921
flexi	-12.6922
lator	-12.6923
▁587	-12.6935
cing	-12.6937
▁12-	-12.6956
▁nn	-12.6965
▁275	-12.6971
▁thiol	-12.6974
WN	-12.6981
105372	-12.6998
itch	-12.7012
auf	-12.7016
gin	-12.704
raxin	-12.7059
▁AK	-12.7083
▁NU	-12.7088
▁766	-12.709
▁amphi	-12.7092
▁def	-12.712
notransferase	-12.713
NL	-12.713
577	-12.7136
lex	-12.7137
▁585	-12.7141
sulfin	-12.7142
▁648	-12.7143
▁stem	-12.7156
▁fat	-12.7173
19-	-12.7179
sing	-12.7193
▁LY	-12.7196
transcription	-12.7221
yn	-12.7223
OT	-12.7243
smal	-12.7244
INC	-12.7251
itu	-12.7252
▁774	-12.7255
il	-12.7263
bo	-12.7265
acting	-12.727
IL	-12.7285
▁CAR	-12.729
COR	-12.7313
▁793	-12.7318
241	-12.7331
CAD	-12.7333
polyglutam	-12.7342
▁hydroxymethyl	-12.7346
phosphoprotein	-12.7352
747	-12.7362
onal	-12.7365
▁186	-12.7381
olli	-12.7391
▁740	-12.7401
iduron	-12.7411
monophosph	-12.7425
▁579	-12.7436
response	-12.7439
273	-12.7445
icot	-12.7454
HR	-12.7457
▁son	-12.7473
▁sh	-12.7481
ai	-12.7481
WF	-12.7484
hospholipase	-12.7497
omedin	-12.7498
ger	-12.7517
ain	-12.7552
nucleos	-12.756
wee	-12.7563
▁inte	-12.7574
ivi	-12.7577
wy	-12.7587
actor	-12.7591
▁Ho	-12.7592
▁NFX	-12.7596
GIMAP	-12.7614
IM	-12.7637
alemm	-12.7641
pen	-12.7653
ku	-12.7662
129	-12.7675
162	-12.7676
▁251	-12.7676
idine	-12.7688
▁lipop	-12.7703
▁trop	-12.7704
omod	-12.7713
197	-12.7717
▁DO	-12.7724
phosphoglucon	-12.7727
ub	-12.7728
gland	-12.7744
skel	-12.7746
▁PTP	-12.7757
oph	-12.7786
GG	-12.7798
▁ph	-12.7805
805	-12.7831
▁nine	-12.7832
adenos	-12.7842
▁891	-12.7851
oglycer	-12.7891
GU	-12.7924
▁836	-12.7943
sick	-12.7944
TAP	-12.7956
▁UBA	-12.7972
▁MD	-12.7981
bil	-12.7981
▁glycosyla	-12.8027
inters	-12.8028
CHIP	-12.8029
UM	-12.8032
nser	-12.8034
▁lan	-12.8041
/17	-12.8062
AI	-12.8068
▁glucosid	-12.8071
orm	-12.808
RBB	-12.809
tial	-12.8151
071	-12.8166
IIb	-12.8176
Ku	-12.8176
▁limbi	-12.8184
toc	-12.8206
▁sialo	-12.8213
cephal	-12.8214
'(	-12.8242
olo	-12.8254
▁Gol	-12.8261
▁96	-12.8263
transduc	-12.8266
apr	-12.8275
755	-12.8289
DAN	-12.8289
flagell	-12.8306
▁LH	-12.831
YW	-12.8313
ylmethionine	-12.8332
toco	-12.8336
▁phosphorylat	-12.8354
ON	-12.8356
etylgalactosaminyltransferase	-12.8363
nit	-12.8393
bis	-12.8416
cin	-12.843
2)	-12.8432
02	-12.8435
oupl	-12.8439
SPH	-12.8482
-6/	-12.8502
olemma	-12.8526
▁proen	-12.855
bor	-12.8552
uronidase	-12.8558
chromat	-12.8568
aminobutyra	-12.8595
▁wa	-12.8604
mu	-12.861
107987	-12.8611
tene	-12.863
▁leuk	-12.8634
ele	-12.8635
wing	-12.8649
ff	-12.8674
▁melanop	-12.8726
▁MC	-12.8742
12-	-12.8749
056	-12.876
noc	-12.8763
PT	-12.8772
rote	-12.8774
FD	-12.8777
▁391	-12.8791
tamine	-12.8807
▁cactin	-12.8809
portin	-12.8831
otrie	-12.8836
▁YA	-12.8836
268	-12.8845
kDa	-12.8856
vent	-12.8857
▁108	-12.8866
lus	-12.8866
ton	-12.8889
meth	-12.8926
llis	-12.8957
▁Pa	-12.8976
▁27-	-12.8979
pit	-12.8984
rib	-12.9013
mm	-12.9014
47)	-12.9045
ygo	-12.9062
AAL	-12.9064
dia	-12.9098
▁277	-12.9101
add	-12.911
asse	-12.911
HEX	-12.9119
▁cy	-12.9154
▁103	-12.9158
yk	-12.9181
quinol	-12.9192
▁DP	-12.92
acetoacet	-12.9202
ylglycine	-12.922
nactiv	-12.9246
057	-12.9261
▁RN	-12.9263
▁127	-12.9264
terato	-12.9275
interactor	-12.929
▁endog	-12.9294
▁CT	-12.9321
ama	-12.9327
dm	-12.9329
hormone	-12.9361
SCG	-12.9362
▁284	-12.9375
opal	-12.9376
▁KC	-12.9412
239	-12.9435
exonuclease	-12.9435
▁DU	-12.9463
killer	-12.9471
serpin	-12.9473
▁atroph	-12.9475
epithelial	-12.9476
apter	-12.948
kinetochore	-12.95
RCC	-12.9513
dys	-12.9519
lase	-12.9522
rno	-12.9534
spermidine	-12.9534
▁thio	-12.9536
photoreceptor	-12.954
purine	-12.9541
hemoglobin	-12.9541
TAF	-12.9541
carcinoma	-12.9542
dehydro	-12.955
▁isof	-12.9555
',5'-	-12.9587
phenyl	-12.9591
▁114	-12.9594
TE	-12.9603
77	-12.9606
process	-12.964
im	-12.9648
COX	-12.9656
▁FS	-12.9661
ABC	-12.9664
IK	-12.9701
Ka	-12.971
rum	-12.9714
▁bre	-12.9728
▁erythro	-12.9729
uk	-12.975
▁phospholip	-12.9757
fide	-12.9759
▁MTO	-12.9781
benz	-12.9784
lycine	-12.9794
▁hair	-12.9797
xanthine	-12.98
100505841	-12.9802
730098	-12.9802
klotho	-12.9802
▁CaMBPv	-12.9802
▁filaggrin	-12.9802
▁symplekin	-12.9802
▁wolframin	-12.9802
▁parvalbumin	-12.9802
▁lysoplasmalogenase	-12.9802
▁podocalyxin	-12.9802
▁INAFM	-12.9803
▁sharpin	-12.9803
albumin	-12.9803
1122679	-12.9803
▁vimentin	-12.9803
▁alternat	-12.9803
▁epiplakin	-12.9803
▁TRAIP	-12.9803
▁SNAI	-12.9803
▁urocortin	-12.9803
oligosacchar	-12.9803
▁KRTAP	-12.9803
▁LDHB	-12.9803
NEUR	-12.9803
▁HMSD	-12.9803
▁dorsal	-12.9803
▁RelB	-12.9804
▁HIRA	-12.9804
EURL	-12.9804
▁TEMP	-12.9804
▁cytoglobin	-12.9804
▁glycosidase	-12.9804
▁phostensin	-12.9805
fibromin	-12.9805
▁migrat	-12.9805
▁peripherin	-12.9805
▁INSL	-12.9811
uPAR	-12.9812
▁stannin	-12.9812
▁three	-12.9813
▁ATIC	-12.9813
mucon	-12.9814
▁permeab	-12.9818
▁MafK	-12.9818
▁hemogen	-12.982
▁LAGE	-12.9825
▁bbb	-12.9832
▁farnesyltransferase	-12.9834
uronyl	-12.9839
▁ww	-12.9844
▁ccc	-12.9844
▁ddd	-12.9846
Ig	-12.9852
zym	-12.9855
▁eee	-12.9857
▁retroviral	-12.9857
▁MAGE	-12.9858
▁vv	-12.9864
▁LBX	-12.9871
▁SYF	-12.9876
▁yy	-12.989
▁histi	-12.9895
olamine	-12.9902
▁aaa	-12.9917
▁hep	-12.9936
ability	-12.9963
▁we	-12.9964
pol	-12.9967
Ia	-12.9975
▁crk	-12.9977
10192	-12.999
AAA	-12.9992
NPP	-12.9995
ILR	-13.0015
▁HIV	-13.0039
cyt	-13.0041
ican	-13.0043
▁MOCS	-13.0048
▁CTR	-13.0055
▁GRK	-13.0055
▁Mc	-13.0055
▁glo	-13.0066
▁leuc	-13.0068
▁uu	-13.0069
epend	-13.0105
▁adenos	-13.0116
lip	-13.012
▁BC	-13.0122
FAF	-13.0133
EA	-13.0142
esc	-13.0145
FL	-13.0175
GH	-13.0192
cen	-13.0214
▁2',	-13.0219
▁transition	-13.022
spira	-13.0224
ocadhe	-13.0239
▁878	-13.024
▁ribosom	-13.0247
▁anne	-13.0262
▁777	-13.0266
oxin	-13.0275
PEP	-13.0279
polyphosphat	-13.0325
▁tur	-13.0336
ork	-13.0343
AAT	-13.0387
fur	-13.0403
ophysin	-13.0405
sulfurase	-13.0407
▁CX	-13.0409
213	-13.041
Ih	-13.0413
ncor	-13.0433
iodi	-13.0435
TOP	-13.0437
1079857	-13.0454
granin	-13.0457
▁cro	-13.0481
09	-13.051
,4-	-13.0518
rest	-13.0521
fol	-13.0526
▁cone	-13.0561
ozyme	-13.0574
1122681	-13.0588
▁XI	-13.0606
che	-13.0651
Ho	-13.0669
▁lymph	-13.0674
▁promot	-13.0688
AML	-13.069
ardi	-13.0701
427	-13.0711
achy	-13.0718
ig	-13.0719
▁113	-13.0727
▁Par	-13.0732
FAT	-13.0741
ister	-13.0741
ARM	-13.0741
▁aden	-13.0746
stro	-13.0749
669	-13.0751
▁IgG	-13.0754
aromat	-13.0763
TCF	-13.0766
▁RhoN	-13.0774
124	-13.0785
hl	-13.0794
ANB	-13.0805
DHD	-13.0807
ING	-13.0816
anc	-13.0839
rily	-13.0884
onyl	-13.0885
728	-13.0928
hyr	-13.093
▁oxidati	-13.0948
nur	-13.0951
▁697	-13.0985
So	-13.0997
nion	-13.0999
▁Pro	-13.1005
▁730	-13.1051
▁DM	-13.1054
▁768	-13.1071
alkyl	-13.1071
-44	-13.1076
nol	-13.1096
▁sin	-13.1099
OV	-13.1108
▁im	-13.1176
ear	-13.1187
▁den	-13.1189
per	-13.1199
▁Hi	-13.1215
▁OC	-13.1219
▁IK	-13.1246
▁MGA	-13.125
171	-13.1262
eroid	-13.1264
▁carbo	-13.1265
gr	-13.1349
▁XPF	-13.1369
ket	-13.1378
▁270	-13.1404
isa	-13.1407
mlin	-13.1441
mbe	-13.1444
▁Si	-13.1448
▁pyrophosph	-13.1458
161	-13.1461
MT	-13.1475
KA	-13.148
▁AH	-13.1544
▁207	-13.1571
posi	-13.1616
mino	-13.1626
▁324	-13.166
yps	-13.1676
onine	-13.168
LPP	-13.1681
oke	-13.1685
120	-13.1695
▁TIP	-13.1714
AAR	-13.1717
930	-13.1726
SO	-13.1768
kis	-13.1776
678	-13.1795
ligase	-13.1804
▁575	-13.1822
OW	-13.1847
Ra	-13.185
rog	-13.1851
AGE	-13.1872
▁SAG	-13.1887
TAG	-13.1901
▁gi	-13.1929
cha	-13.1931
▁Ch	-13.1963
nse	-13.1967
▁PIK	-13.2006
▁835	-13.2052
let	-13.2061
11-	-13.2123
▁xx	-13.2145
▁polyprotein	-13.2156
cru	-13.2158
947	-13.2162
ticle	-13.2176
Bar	-13.2188
ATH	-13.2212
PARP	-13.2244
DDC	-13.2296
▁phosphom	-13.2313
erase	-13.2335
▁sero	-13.2338
▁reti	-13.239
1/2	-13.2393
229	-13.2417
tryp	-13.2433
BI	-13.2471
▁628	-13.249
chor	-13.2502
ylat	-13.2515
steri	-13.2538
ytochrome	-13.2542
eak	-13.2544
bd	-13.2602
sti	-13.2606
▁335	-13.2617
AG	-13.2634
▁HID	-13.2705
▁WA	-13.2711
ka	-13.2718
ofilin	-13.2721
exa	-13.2724
ocyt	-13.2728
hb	-13.2729
rd	-13.2733
182	-13.2736
▁14-	-13.2737
oci	-13.2749
565	-13.2759
nod	-13.2766
▁581	-13.2785
ln	-13.2788
mi	-13.2818
chori	-13.2848
tiona	-13.2854
inhibi	-13.2885
NBP	-13.2952
rudi	-13.3027
044	-13.3046
▁acc	-13.3049
ack	-13.3054
▁ferr	-13.308
nteri	-13.3113
OH	-13.3124
ocalcin	-13.313
ssociated	-13.3144
▁Ar	-13.3193
598	-13.3232
MON	-13.3244
▁comm	-13.3253
▁trig	-13.3264
turn	-13.3335
fl	-13.338
rosome	-13.3382
▁ano	-13.3416
noct	-13.3455
qu	-13.3485
▁DEA	-13.349
titi	-13.3507
yldihydro	-13.3517
▁440	-13.3538
deoxy	-13.3575
704	-13.3598
ogonado	-13.3606
▁Cl	-13.3609
▁prim	-13.3619
▁ja	-13.3637
met	-13.3649
▁ci	-13.3653
▁BRC	-13.3659
ortic	-13.3664
criti	-13.3675
no	-13.3678
ymin	-13.3684
phagy	-13.3706
usc	-13.3728
▁periph	-13.3732
gger	-13.3737
▁polymer	-13.3741
posit	-13.3766
▁pap	-13.3778
▁sca	-13.3781
ogranin	-13.3784
▁MS	-13.3798
▁mes	-13.383
▁MEA	-13.3842
▁EAR	-13.3847
TPR	-13.3918
▁432	-13.3955
lch	-13.3969
AX	-13.3971
nce	-13.3976
even	-13.3986
RNP	-13.4002
▁synem	-13.4005
▁PM	-13.4011
enome	-13.4027
▁thymi	-13.4045
phospholipid	-13.4048
chondr	-13.4051
integra	-13.4062
LR	-13.4081
▁BRI	-13.4087
glucuroni	-13.4109
xyl	-13.4134
TIM	-13.4141
▁zy	-13.4159
ifie	-13.4196
▁358	-13.4211
methylthio	-13.4218
▁hepa	-13.4236
▁362	-13.4237
26-	-13.4238
hre	-13.4238
hibin	-13.426
PAC	-13.4263
initi	-13.4266
organ	-13.4268
octa	-13.4272
▁Ti	-13.4298
260	-13.4305
▁PIN	-13.4319
merase	-13.4328
regu	-13.4393
granul	-13.4395
rase	-13.4402
3',5'-	-13.4406
omatic	-13.4406
UN	-13.4423
cilin	-13.4448
▁es	-13.4486
prenyl	-13.4518
FXYD	-13.452
WT	-13.452
apopto	-13.4521
pseudogene	-13.4521
cardiac	-13.4523
▁fructos	-13.4539
gi	-13.4539
iod	-13.454
958	-13.4553
openten	-13.4554
RBM	-13.4557
ERCC	-13.4565
RT	-13.4567
555	-13.4574
trimethyl	-13.4574
Rap	-13.4595
▁Man	-13.4636
cellul	-13.465
VT	-13.466
PTC	-13.4697
urocan	-13.4704
▁adipogen	-13.472
1079848	-13.4729
▁173	-13.4735
guid	-13.4736
jm	-13.4742
▁hormon	-13.4749
▁secretagog	-13.4771
▁centromer	-13.4774
▁rootlet	-13.4776
▁FAN	-13.4782
▁stanni	-13.4787
▁epididym	-13.4787
▁chemotaxi	-13.479
▁ke	-13.4791
▁myocardi	-13.4793
▁osteo	-13.4795
▁chito	-13.4798
acetylneuramin	-13.48
▁gangli	-13.4802
imidazol	-13.4802
00000381495	-13.4802
1010599	-13.4802
deltaNHR	-13.4802
oxoprolinase	-13.4802
▁Abitram	-13.4802
▁NYNRIN	-13.4802
▁OTULINL	-13.4802
▁VENTX	-13.4802
▁goosecoid	-13.4802
▁harakiri	-13.4802
▁loricrin	-13.4802
▁scleraxis	-13.4802
▁vertnin	-13.4802
▁calreticulin	-13.4802
adrenomedullin	-13.4802
▁ABRACL	-13.4802
▁reprimo	-13.4802
▁trichohyalin	-13.4802
acylneuraminate	-13.4803
▁isomerohydrolase	-13.4803
▁MDEG	-13.4803
▁IMPACT	-13.4803
▁NOBOX	-13.4803
▁BCCIP	-13.4803
1225267	-13.4803
▁MEIOC	-13.4803
100996	-13.4803
▁rBAT	-13.4803
▁parafibromin	-13.4803
lactonase	-13.4803
▁speci	-13.4803
▁AIFsh	-13.4803
▁Asterix	-13.4803
eicosa	-13.4804
▁fumar	-13.4804
▁CTLA	-13.4805
▁multicilin	-13.4806
▁atherin	-13.4806
▁ZNR	-13.4808
▁GCMa	-13.4808
122319	-13.4808
▁calreti	-13.4809
▁osteoc	-13.4809
phosphatidylglycero	-13.481
amoyl	-13.4811
▁root	-13.4813
▁SRCAP	-13.4813
▁emerin	-13.4814
emop	-13.4815
▁acrosin	-13.4822
▁speck	-13.4823
senilin	-13.4823
ogelin	-13.4824
hlori	-13.4826
▁secretagogin	-13.4835
▁latexin	-13.4835
▁nons	-13.4838
▁ENPP	-13.4838
ylating	-13.484
▁ARH	-13.484
▁ZP	-13.4843
lock	-13.4846
ility	-13.4848
▁FRAT	-13.4852
▁mesen	-13.4862
▁NLK	-13.4867
10798398	-13.4875
▁TLR	-13.4877
amil	-13.4877
▁Ib	-13.488
ula	-13.488
1027240	-13.4888
ibble	-13.4891
ovir	-13.4892
KDC	-13.4894
aphyl	-13.4898
myopa	-13.4901
▁STK	-13.4901
▁dihydrop	-13.4903
1053767	-13.4908
▁SHOX	-13.4911
▁Alt	-13.4913
178	-13.4921
▁oligopeptidase	-13.4921
RBAK	-13.4928
▁rTS	-13.493
inotransferase	-13.494
▁UNG	-13.4944
▁VEG	-13.4949
rom	-13.495
12245533	-13.4954
TSK	-13.4954
ror	-13.4968
ressin	-13.4972
▁AATF	-13.4978
▁NOP	-13.4981
▁methion	-13.4981
10053	-13.4984
pl	-13.499
HMT	-13.4991
▁scler	-13.4995
634	-13.4998
largin	-13.5005
dow	-13.502
diphosphatase	-13.5034
ev	-13.5035
eal	-13.5046
800	-13.505
10798483	-13.5054
▁thi	-13.5055
▁723	-13.5063
fin	-13.5079
MIS	-13.5079
ARHGAP	-13.5083
▁PRR	-13.5083
▁PD	-13.5085
▁PRK	-13.5096
▁GCN	-13.5112
entin	-13.5136
▁unco	-13.5138
▁MRG	-13.5146
▁MSS	-13.5153
▁770	-13.5157
AMT	-13.5184
10798728	-13.5187
mediate	-13.5199
▁bil	-13.5201
▁tyrosin	-13.5209
▁cyst	-13.521
LAC	-13.5223
▁lec	-13.523
169	-13.5231
HL	-13.5235
anos	-13.5241
dor	-13.5244
▁DBX	-13.5252
▁YI	-13.5258
▁glycera	-13.531
nn	-13.5315
PY	-13.5323
1079874	-13.5327
RB	-13.5339
1122683	-13.536
▁prol	-13.543
TC	-13.5446
opin	-13.5451
1053712	-13.5455
▁CYP	-13.5458
3'-	-13.5467
▁exc	-13.5488
▁mm	-13.5493
igi	-13.5497
uno	-13.5524
nas	-13.555
▁deoxyribo	-13.5551
▁CS	-13.5554
ubi	-13.5557
12245534	-13.5564
LY	-13.5568
▁deu	-13.5568
BMI	-13.5575
▁624	-13.558
apos	-13.5585
sk	-13.5593
▁kalli	-13.5602
SAP	-13.5603
copepti	-13.5626
187	-13.564
▁maturin	-13.5657
ithin	-13.5686
acetylm	-13.5689
75-	-13.5732
osmin	-13.5772
get	-13.578
rap	-13.5785
duct	-13.5809
omo	-13.5814
▁myoc	-13.582
gul	-13.5828
EC	-13.5856
▁470	-13.5868
tena	-13.588
pyrophospho	-13.5915
soli	-13.5927
▁223	-13.5928
peroxidas	-13.5931
ryl	-13.5945
ollo	-13.595
105379	-13.5956
91	-13.5961
▁chem	-13.5993
eral	-13.5993
opor	-13.6012
▁resid	-13.6059
▁XV	-13.6071
ater	-13.6077
secreto	-13.608
▁679	-13.6114
gas	-13.612
ras	-13.6125
ement	-13.6127
▁lymphot	-13.6128
159	-13.6136
unc	-13.6156
ole	-13.6178
▁804	-13.6199
CY	-13.6213
▁HM	-13.622
▁NIP	-13.622
▁ee	-13.6223
ordin	-13.6224
verin	-13.6233
ehal	-13.624
▁OTUB	-13.6254
▁LIN	-13.6265
herin	-13.6289
▁AIF	-13.6292
PC	-13.6311
ose	-13.6314
ime	-13.6324
▁vin	-13.6347
▁99	-13.6352
▁599	-13.6356
cept	-13.6374
gnan	-13.6398
▁NA	-13.6413
▁880	-13.6428
ida	-13.6455
▁lea	-13.6473
▁opio	-13.6487
▁860	-13.6531
rogeni	-13.6533
exo	-13.6548
open	-13.6568
somerase	-13.6607
75	-13.663
▁FR	-13.6636
▁metallop	-13.6651
25-	-13.6672
alf	-13.6675
DV	-13.6688
topoi	-13.671
AIP	-13.6711
yp	-13.6713
▁zz	-13.6732
mono	-13.6751
NSD	-13.6774
▁stath	-13.6783
unD	-13.6789
▁594	-13.6804
▁prostat	-13.6826
▁DD	-13.6845
medi	-13.6853
Kb	-13.6862
▁guani	-13.6877
opoietin	-13.6899
culin	-13.6908
▁ubiquit	-13.6924
POC	-13.6954
RBP	-13.6955
▁met	-13.6964
246	-13.6983
obl	-13.7011
ast	-13.7047
rs	-13.706
▁GRI	-13.707
heparin	-13.7083
RX	-13.712
denylate	-13.713
lla	-13.7165
AB	-13.7171
up	-13.7172
lap	-13.7176
▁cc	-13.7178
▁XP	-13.7189
istal	-13.7192
▁224	-13.7206
MSS	-13.7248
▁suc	-13.7254
induci	-13.7258
132	-13.7275
ocardi	-13.7297
ycl	-13.7299
icen	-13.7333
nch	-13.7342
IR	-13.7343
▁198	-13.7356
▁deca	-13.7358
sha	-13.7359
115	-13.7374
RR	-13.7396
SAA	-13.7429
nucle	-13.7432
subunit	-13.7464
▁791	-13.7464
othelin	-13.7485
▁AR	-13.7496
iv	-13.7515
9473	-13.7522
▁469	-13.7523
ochromat	-13.7526
og	-13.7541
nex	-13.7549
RMT	-13.7553
▁PGA	-13.7606
LO	-13.7632
hospho	-13.7637
aut	-13.7637
atase	-13.7645
plegi	-13.7666
XT	-13.7669
143	-13.7687
EH	-13.7695
aves	-13.7698
287	-13.7703
▁211	-13.7718
7)	-13.7764
ppin	-13.7782
RIM	-13.7784
samine	-13.7796
skeletal	-13.7811
783	-13.7825
▁activati	-13.7832
▁glutar	-13.7857
rbin	-13.7872
gna	-13.7885
▁837	-13.7892
RFP	-13.7902
299	-13.7916
06	-13.792
▁844	-13.7921
3/	-13.7933
ride	-13.794
modulator	-13.7943
synt	-13.8004
▁609	-13.8016
▁myel	-13.8046
vel	-13.8049
▁ho	-13.8098
finger	-13.8099
noyl	-13.8118
ltra	-13.8119
▁emb	-13.8121
ei	-13.8158
xt	-13.816
▁meso	-13.8185
▁IT	-13.8209
UD	-13.8231
ngs	-13.8236
petit	-13.8291
oxy	-13.8316
integr	-13.8356
IMA	-13.8373
▁CR	-13.8437
ef	-13.8454
plakin	-13.8488
miss	-13.849
xa	-13.8525
ist	-13.8541
oil	-13.8579
cod	-13.8584
▁carn	-13.8623
▁sha	-13.8624
transm	-13.8629
siali	-13.8734
210	-13.878
▁RO	-13.879
▁9-8	-13.8813
▁serot	-13.8817
173	-13.8826
▁cer	-13.8828
anio	-13.8829
▁Ka	-13.886
idin	-13.887
ts	-13.891
15,	-13.8911
1,6-	-13.8918
▁119	-13.893
hesin	-13.8969
125	-13.8985
228	-13.899
demeth	-13.9006
▁corn	-13.9019
▁XII	-13.9023
TB	-13.9071
▁cyclo	-13.9083
462	-13.9089
lis	-13.9104
▁727	-13.9106
aph	-13.9122
▁NO	-13.9129
ridine	-13.9143
▁cathe	-13.9186
pho	-13.9187
prim	-13.9264
oplas	-13.9265
▁myelo	-13.9277
ISP	-13.9293
,6-	-13.9306
▁672	-13.9326
oglutarate	-13.9379
rro	-13.9401
ains	-13.9418
pire	-13.9431
42-	-13.9471
VA	-13.95
FKB	-13.9523
▁ba	-13.9539
▁estr	-13.9558
ction	-13.9563
eta	-13.9565
▁SY	-13.9635
tector	-13.9641
phin	-13.9665
gluc	-13.9675
▁bra	-13.9701
inc	-13.9723
▁calm	-13.9732
FAP	-13.9738
▁Fa	-13.9871
sco	-13.9912
▁pel	-13.9922
▁GM	-13.9924
▁recombina	-13.9943
enter	-13.998
HN	-13.9981
emma	-13.9983
▁qu	-14.0028
▁629	-14.0056
ALP	-14.0074
lida	-14.0084
INK	-14.0092
▁atr	-14.0113
▁1,2	-14.0119
usin	-14.0131
▁moti	-14.0134
optosis	-14.0136
acema	-14.0155
▁sarcos	-14.0161
thelin	-14.0175
▁153	-14.0191
▁CA	-14.0211
RH	-14.0243
341	-14.0288
Cu	-14.0303
eY	-14.0335
cr	-14.035
▁man	-14.0369
carbo	-14.0379
lated	-14.0426
▁LI	-14.0431
member	-14.046
▁PAL	-14.0461
▁cortico	-14.0483
EP	-14.0492
▁151	-14.0528
▁bu	-14.0571
ogeni	-14.0602
iqu	-14.0635
phosphatidylcholine	-14.0661
▁ste	-14.0667
ismat	-14.0749
dac	-14.0752
deac	-14.0806
aladin	-14.0835
oplasmic	-14.0839
tt	-14.0881
▁tet	-14.0909
axon	-14.0964
rac	-14.0984
eca	-14.1022
▁smoothe	-14.1064
56-	-14.1074
eno	-14.1081
▁367	-14.1084
bs	-14.1095
rgin	-14.1114
▁str	-14.1134
DPH	-14.1164
arpin	-14.1166
phosph	-14.1176
cont	-14.1181
soform	-14.132
lig	-14.1368
thylamin	-14.1375
opathy	-14.1407
▁DA	-14.1409
ufm	-14.1456
243	-14.1471
omodulin	-14.1484
749	-14.1488
▁316	-14.1494
roporphyrinogen	-14.1494
▁HH	-14.1533
top	-14.1565
▁myom	-14.1565
XD	-14.1572
▁4-2	-14.1669
PAP	-14.1685
teric	-14.1844
RPC	-14.1868
▁154	-14.1883
anno	-14.1909
▁sia	-14.1918
▁ll	-14.1932
uni	-14.1936
▁translational	-14.197
ered	-14.1973
▁thyrotrop	-14.1988
oub	-14.2029
roto	-14.2091
rbo	-14.2098
ce	-14.2122
ubl	-14.2132
▁9-6	-14.2134
▁syne	-14.2136
rbon	-14.2144
▁au	-14.2168
nju	-14.221
ged	-14.2286
ctal	-14.2354
▁Cd	-14.236
sac	-14.2368
▁respons	-14.2421
desm	-14.2477
UV	-14.2483
trin	-14.261
▁bar	-14.2616
oform	-14.2634
▁sta	-14.2675
roglobin	-14.2677
henyl	-14.2693
,14-	-14.2728
▁ora	-14.277
sym	-14.2819
072	-14.2821
sen	-14.2834
tocyte	-14.2848
▁net	-14.2852
mann	-14.2869
cyltransferase	-14.2897
AA	-14.2998
llistatin	-14.3062
component	-14.3072
FT	-14.3087
286	-14.316
spat	-14.3162
MB	-14.3172
ORF	-14.3254
estrin	-14.3304
ADR	-14.3327
homolog	-14.3333
pim	-14.3389
obutyr	-14.3392
ketoac	-14.3407
102	-14.3409
▁BT	-14.3453
ue	-14.3472
IA	-14.348
ec	-14.3495
seve	-14.3549
ept	-14.3634
sur	-14.3663
LK	-14.373
bc	-14.3759
ib	-14.3824
▁proge	-14.3835
myelin	-14.3836
gulati	-14.3844
0/	-14.3845
199	-14.3887
ycan	-14.3924
XP	-14.3928
tent	-14.3967
▁US	-14.3974
NME	-14.3979
▁dead	-14.3981
▁defi	-14.3996
hymo	-14.4009
▁TT	-14.4057
620	-14.4079
ura	-14.4089
rie	-14.4099
short	-14.4142
237	-14.4159
iter	-14.4163
NAF	-14.4174
RV	-14.419
nded	-14.4218
TTLL	-14.4285
ntegrat	-14.4288
mak	-14.4311
ZNF	-14.4313
nos	-14.4336
carnitine	-14.4344
heme	-14.4416
4103	-14.4431
NMD	-14.4436
ista	-14.4455
NUDT	-14.4466
geranylgeranyl	-14.4472
▁PLA	-14.4472
aldolase	-14.4519
glucagon	-14.452
▁hydrol	-14.4521
decarboxylating	-14.4539
Prp	-14.4542
2-(	-14.4544
indole	-14.4559
lysyl	-14.4564
TNF	-14.4566
neuropeptide	-14.4579
immun	-14.4585
CYP	-14.4585
▁109	-14.4587
repress	-14.4599
WFDC	-14.4609
▁MPP	-14.4609
nolamine	-14.462
glyox	-14.4623
107986	-14.4629
1079839	-14.4629
si	-14.4635
elast	-14.4661
rup	-14.4664
nem	-14.467
MH	-14.4682
mbryon	-14.4743
PIK	-14.4757
▁kerat	-14.478
onate	-14.4789
▁dystrophi	-14.479
▁NDUFA	-14.4797
pantethein	-14.4802
stream	-14.4802
▁hyaluroni	-14.4802
▁traffic	-14.4802
ureido	-14.4802
-(	-14.4807
▁spermatogen	-14.4809
▁plasm	-14.4809
▁hypox	-14.4818
nge	-14.482
egenerati	-14.4822
phosphoribosyltransferase	-14.4822
rator	-14.4822
52678	-14.4829
hort	-14.4832
referen	-14.484
leukin	-14.4854
▁RA	-14.4882
▁VDR	-14.4888
▁des	-14.4896
anthine	-14.4899
RAB	-14.4903
▁pyridox	-14.4904
noid	-14.4909
▁PL	-14.4968
▁KRT	-14.4993
kie	-14.4996
▁repress	-14.5008
PG	-14.5039
696	-14.5048
BRD	-14.5072
▁palm	-14.5073
▁phosphol	-14.5073
▁FU	-14.5079
▁115	-14.5087
PPP	-14.5109
delphi	-14.5112
PHF	-14.5136
105371	-14.5138
etop	-14.514
midine	-14.5147
▁GCM	-14.5149
propionase	-14.5164
TG	-14.5207
phosphof	-14.5231
▁GS	-14.5238
6986	-14.5255
▁ten	-14.5289
10050	-14.5326
TV	-14.5332
ophin	-14.5345
oproteinase	-14.5351
519	-14.5357
737	-14.5387
▁GIM	-14.5387
retin	-14.54
cte	-14.541
doh	-14.5417
AU	-14.5443
XVII	-14.5533
zur	-14.5537
799	-14.5539
4052	-14.5565
epi	-14.5624
CG	-14.5646
▁PB	-14.5647
osta	-14.5681
▁Home	-14.5689
galactos	-14.5695
sacchar	-14.5714
PZ	-14.5731
ML	-14.5744
120-	-14.5771
PAM	-14.584
tol	-14.5889
ae	-14.5906
nyl	-14.5924
gu	-14.5982
ocan	-14.6051
ethan	-14.6053
▁BRIC	-14.6071
operoxid	-14.612
ropin	-14.6128
▁524	-14.6181
gluco	-14.6189
du	-14.6191
leuk	-14.6193
stimulator	-14.6207
117	-14.6241
▁Mo	-14.6249
pe	-14.6302
SA	-14.6325
po	-14.6348
▁forma	-14.6359
omutase	-14.6375
▁NOB	-14.638
ystin	-14.6434
269	-14.6441
▁552	-14.6477
ium	-14.6518
2405	-14.6587
opon	-14.6603
sylgalactosyl	-14.6642
egr	-14.665
▁lum	-14.6668
sfer	-14.6669
methylguan	-14.6697
modula	-14.6776
584	-14.6814
▁PPA	-14.6819
▁491	-14.6822
▁814	-14.6822
lem	-14.6935
nu	-14.6952
schi	-14.696
NY	-14.6979
▁asparta	-14.6985
PM	-14.7014
▁scr	-14.7025
1079841	-14.705
16-	-14.7055
▁La	-14.711
cit	-14.718
▁HB	-14.7224
▁mat	-14.7254
bio	-14.7282
121	-14.7358
erma	-14.743
0-	-14.7476
▁No	-14.7494
ALS	-14.7497
BOX	-14.7542
ari	-14.7543
▁TN	-14.7614
127	-14.7649
otoxin	-14.7664
troph	-14.7725
yxin	-14.778
inosin	-14.7788
CIP	-14.7934
uf	-14.7941
▁myogeni	-14.7956
halus	-14.7962
▁acet	-14.8033
eo	-14.8053
▁DH	-14.8126
mitochondrial	-14.8134
2,3-	-14.8144
773	-14.8148
GLE	-14.8169
▁SAA	-14.8192
rgo	-14.8194
▁bl	-14.8195
lacto	-14.8197
1009	-14.8211
▁guan	-14.8296
,3-	-14.8303
oesterase	-14.831
▁ela	-14.8333
galactosaminyltransferase	-14.8341
869	-14.8372
208	-14.8408
▁LS	-14.8447
ish	-14.8456
home	-14.849
TD	-14.8522
BEC	-14.8531
restin	-14.8556
▁cycli	-14.8594
▁polyu	-14.8597
dimethyla	-14.862
▁bio	-14.8631
tide	-14.8642
▁MARC	-14.8667
ano	-14.8713
sper	-14.8747
da	-14.8751
PIT	-14.8751
▁thre	-14.8754
GAR	-14.8804
▁21-1	-14.8806
496	-14.8897
cogn	-14.8911
729	-14.8999
DCC	-14.902
rad	-14.9027
differentiat	-14.9065
/1	-14.9066
ylamine	-14.9093
ito	-14.9102
acetylglucosamin	-14.9102
701	-14.9117
rien	-14.9129
▁kap	-14.9216
tical	-14.9226
▁coact	-14.9227
but	-14.9299
▁LP	-14.9313
VG	-14.9347
LU	-14.9351
▁Ne	-14.9434
matase	-14.9468
fm	-14.9483
ldehyde	-14.9517
asp	-14.9708
▁Sy	-14.9709
anyl	-14.9727
419	-14.9746
basi	-14.9792
sp	-14.985
▁kine	-14.9874
tidyltransferase	-14.9916
▁py	-14.9955
otidase	-14.996
bular	-14.9965
TI	-14.9991
SSC	-15.0047
fier	-15.0052
746	-15.0056
671	-15.0077
deoxyribonucle	-15.0114
ost	-15.0366
nnom	-15.0434
oacetyl	-15.0462
combin	-15.048
atenin	-15.0489
▁MP	-15.0513
▁FC	-15.0608
plasmic	-15.0639
ks	-15.0668
nanc	-15.0699
umen	-15.0701
▁137	-15.0827
pta	-15.0888
lign	-15.1039
associati	-15.1043
▁myogen	-15.1119
amel	-15.1134
iat	-15.1151
paxi	-15.1213
glyc	-15.1441
ign	-15.1448
dd	-15.1461
otaxin	-15.1486
BPL	-15.1492
odi	-15.1551
MAL	-15.1604
15-	-15.1641
larin	-15.1643
148	-15.1645
edin	-15.1653
ako	-15.1674
▁adenosyl	-15.1746
▁cycl	-15.1755
FE	-15.1772
▁muc	-15.1783
103	-15.1891
▁1,4	-15.201
transfer	-15.2029
rax	-15.2043
lino	-15.2069
renin	-15.2095
▁medi	-15.215
thym	-15.2205
HOS	-15.2241
tr	-15.2308
▁glycosylat	-15.2341
acellular	-15.2413
▁sur	-15.2481
chondri	-15.2494
▁cl	-15.2615
▁ext	-15.2621
ector	-15.2677
672	-15.2694
ho	-15.2821
hilin	-15.2823
kk	-15.2827
olig	-15.2856
1)-	-15.2907
ocyto	-15.2974
uridyla	-15.2979
fu	-15.2984
▁nico	-15.2989
cathe	-15.299
▁CM	-15.3024
ami	-15.3135
phalin	-15.3174
ATD	-15.3243
methylcyt	-15.3249
kel	-15.3256
sph	-15.3268
▁lysophosph	-15.3339
til	-15.3425
260-	-15.3437
SPR	-15.345
▁Calpha	-15.3474
TME	-15.3477
iphosphate	-15.3556
acti	-15.3573
SLC	-15.3624
pre	-15.3643
ep	-15.3725
▁bind	-15.3766
ribo	-15.3766
IIa	-15.3791
ckle	-15.3857
▁Pu	-15.386
CSM	-15.3987
330	-15.4026
▁213	-15.4031
ob	-15.4044
denosine	-15.406
asso	-15.4102
593	-15.4109
tra	-15.4118
neure	-15.4199
REG	-15.42
▁Bl	-15.4204
visi	-15.4236
283	-15.4279
▁gal	-15.4357
itator	-15.4375
▁ant	-15.4449
▁AS	-15.4478
-1,3	-15.4481
pey	-15.4484
ont	-15.4533
gulin	-15.4561
▁pla	-15.4577
conta	-15.4582
436	-15.4583
epha	-15.4615
966	-15.4698
▁ru	-15.4722
DA	-15.473
rpin	-15.4777
arva	-15.479
LM	-15.4892
1225	-15.4902
urine	-15.5003
▁VD	-15.502
emm	-15.5041
IIA	-15.5062
yruv	-15.5117
phob	-15.5166
ensi	-15.5219
amp	-15.5224
fel	-15.523
nal	-15.5303
▁hydr	-15.5328
spo	-15.5335
▁KA	-15.5376
XL	-15.5396
opoly	-15.5472
tat	-15.5668
nzyme	-15.5685
NM	-15.5701
ech	-15.5768
aminyl	-15.5855
▁int	-15.5923
▁Wi	-15.5927
MOB	-15.5957
119	-15.6029
fus	-15.6165
media	-15.6183
232	-15.6188
AGA	-15.622
040	-15.6252
▁pero	-15.6259
Fc	-15.6284
olipid	-15.641
CO	-15.6442
ENT	-15.646
ny	-15.6471
arboxylate	-15.6474
▁BS	-15.6477
116	-15.6579
ethal	-15.6589
hogenesis	-15.6667
128	-15.6693
lial	-15.6706
670	-15.6736
DRG	-15.6877
lation	-15.6877
eti	-15.6985
transducin	-15.7001
pel	-15.7007
ucin	-15.7059
▁NY	-15.7105
▁pyri	-15.7147
aro	-15.7334
xe	-15.74
▁INS	-15.7405
AE	-15.745
▁men	-15.7482
nsc	-15.76
tilin	-15.7908
ylgalactosyl	-15.7975
▁BCA	-15.8013
ily	-15.8045
▁desu	-15.8048
CHF	-15.8065
nogen	-15.8127
1223	-15.8129
▁ze	-15.817
ostatin	-15.8189
ferr	-15.8236
▁123	-15.8244
IBR	-15.8266
203	-15.8349
▁je	-15.8362
-38	-15.8384
▁MF	-15.8456
gop	-15.8514
▁nic	-15.8635
glucos	-15.8641
